TRT-100700-EntropyCalibration2
video_clip: 3ca14c99
/model/Mul_8_output_0: 3fd1b061
/model/Gather_output_0: 3ca14c99
/model/backbone_3d/backbone/backbone.0/conv/conv_t/Conv_output_0: 3dddcd31
/model/backbone_3d/backbone/backbone.0/conv/conv_xy/Conv_output_0: 3d324b70
/model/backbone_3d/backbone/backbone.0/activation/Relu_output_0: 3d17715d
/model/backbone_3d/backbone/backbone.1/res_blocks.0/branch1_conv/Conv_output_0: 3d475fb7
/model/backbone_3d/backbone/backbone.1/res_blocks.0/branch2/conv_a/Conv_output_0: 3ce25b09
/model/backbone_3d/backbone/backbone.1/res_blocks.0/branch2/act_a/Relu_output_0: 3c9e6bb9
/model/backbone_3d/backbone/backbone.1/res_blocks.0/branch2/conv_b/Conv_output_0: 3cd9e1cf
/model/backbone_3d/backbone/backbone.1/res_blocks.0/branch2/norm_b/norm_b.1/ReduceMean_output_0: 3d0813cf
/model/backbone_3d/backbone/backbone.1/res_blocks.0/branch2/norm_b/norm_b.1/block/block.0/Conv_output_0: 3d816e79
/model/backbone_3d/backbone/backbone.1/res_blocks.0/branch2/norm_b/norm_b.1/block/block.1/Relu_output_0: 3d816e79
/model/backbone_3d/backbone/backbone.1/res_blocks.0/branch2/norm_b/norm_b.1/block/block.2/Conv_output_0: 3ce72eaa
/model/backbone_3d/backbone/backbone.1/res_blocks.0/branch2/norm_b/norm_b.1/block/block.3/Sigmoid_output_0: 3bfaffac
/model/backbone_3d/backbone/backbone.1/res_blocks.0/branch2/norm_b/norm_b.1/Mul_output_0: 3ca941dd
/model/backbone_3d/backbone/backbone.1/res_blocks.0/branch2/act_b/Sigmoid_output_0: 3ada4aee
/model/backbone_3d/backbone/backbone.1/res_blocks.0/branch2/act_b/Mul_output_0: 3c9cd5c4
/model/backbone_3d/backbone/backbone.1/res_blocks.0/branch2/conv_c/Conv_output_0: 3d5f1f27
/model/backbone_3d/backbone/backbone.1/res_blocks.0/Add_output_0: 3e07d61d
/model/backbone_3d/backbone/backbone.1/res_blocks.0/activation/Relu_output_0: 3e07d61d
/model/backbone_3d/backbone/backbone.1/res_blocks.1/branch2/conv_a/Conv_output_0: 3ca73d60
/model/backbone_3d/backbone/backbone.1/res_blocks.1/branch2/act_a/Relu_output_0: 3ca7e5ae
/model/backbone_3d/backbone/backbone.1/res_blocks.1/branch2/conv_b/Conv_output_0: 3d256d63
/model/backbone_3d/backbone/backbone.1/res_blocks.1/branch2/act_b/Sigmoid_output_0: 3c091fb7
/model/backbone_3d/backbone/backbone.1/res_blocks.1/branch2/act_b/Mul_output_0: 3d0127fd
/model/backbone_3d/backbone/backbone.1/res_blocks.1/branch2/conv_c/Conv_output_0: 3d1ce967
/model/backbone_3d/backbone/backbone.1/res_blocks.1/Add_output_0: 3e0fd1fa
/model/backbone_3d/backbone/backbone.1/res_blocks.1/activation/Relu_output_0: 3e0fd1fa
/model/backbone_3d/backbone/backbone.1/res_blocks.2/branch2/conv_a/Conv_output_0: 3c973804
/model/backbone_3d/backbone/backbone.1/res_blocks.2/branch2/act_a/Relu_output_0: 3c990fda
/model/backbone_3d/backbone/backbone.1/res_blocks.2/branch2/conv_b/Conv_output_0: 3c908f84
/model/backbone_3d/backbone/backbone.1/res_blocks.2/branch2/norm_b/norm_b.1/ReduceMean_output_0: 3c98e867
/model/backbone_3d/backbone/backbone.1/res_blocks.2/branch2/norm_b/norm_b.1/block/block.0/Conv_output_0: 3bb6b150
/model/backbone_3d/backbone/backbone.1/res_blocks.2/branch2/norm_b/norm_b.1/block/block.1/Relu_output_0: 3bb6b150
/model/backbone_3d/backbone/backbone.1/res_blocks.2/branch2/norm_b/norm_b.1/block/block.2/Conv_output_0: 3c94ec03
/model/backbone_3d/backbone/backbone.1/res_blocks.2/branch2/norm_b/norm_b.1/block/block.3/Sigmoid_output_0: 3be24d04
/model/backbone_3d/backbone/backbone.1/res_blocks.2/branch2/norm_b/norm_b.1/Mul_output_0: 3c43252f
/model/backbone_3d/backbone/backbone.1/res_blocks.2/branch2/act_b/Sigmoid_output_0: 3bec7f61
/model/backbone_3d/backbone/backbone.1/res_blocks.2/branch2/act_b/Mul_output_0: 3bb97aae
/model/backbone_3d/backbone/backbone.1/res_blocks.2/branch2/conv_c/Conv_output_0: 3d31fe13
/model/backbone_3d/backbone/backbone.1/res_blocks.2/Add_output_0: 3e12d1bc
/model/backbone_3d/backbone/backbone.1/res_blocks.2/activation/Relu_output_0: 3e12d1bc
/model/backbone_3d/backbone/backbone.2/res_blocks.0/branch1_conv/Conv_output_0: 3d112459
/model/backbone_3d/backbone/backbone.2/res_blocks.0/branch2/conv_a/Conv_output_0: 3cdbcc2c
/model/backbone_3d/backbone/backbone.2/res_blocks.0/branch2/act_a/Relu_output_0: 3cc2768c
/model/backbone_3d/backbone/backbone.2/res_blocks.0/branch2/conv_b/Conv_output_0: 3cc5071b
/model/backbone_3d/backbone/backbone.2/res_blocks.0/branch2/norm_b/norm_b.1/ReduceMean_output_0: 3cc4b17d
/model/backbone_3d/backbone/backbone.2/res_blocks.0/branch2/norm_b/norm_b.1/block/block.0/Conv_output_0: 3d5f3be4
/model/backbone_3d/backbone/backbone.2/res_blocks.0/branch2/norm_b/norm_b.1/block/block.1/Relu_output_0: 3d5f3be4
/model/backbone_3d/backbone/backbone.2/res_blocks.0/branch2/norm_b/norm_b.1/block/block.2/Conv_output_0: 3cd0258c
/model/backbone_3d/backbone/backbone.2/res_blocks.0/branch2/norm_b/norm_b.1/block/block.3/Sigmoid_output_0: 3bf9249c
/model/backbone_3d/backbone/backbone.2/res_blocks.0/branch2/norm_b/norm_b.1/Mul_output_0: 3cae50e3
/model/backbone_3d/backbone/backbone.2/res_blocks.0/branch2/act_b/Sigmoid_output_0: 3bf880f6
/model/backbone_3d/backbone/backbone.2/res_blocks.0/branch2/act_b/Mul_output_0: 3ca37a5c
/model/backbone_3d/backbone/backbone.2/res_blocks.0/branch2/conv_c/Conv_output_0: 3d6fdc0b
/model/backbone_3d/backbone/backbone.2/res_blocks.0/Add_output_0: 3da77819
/model/backbone_3d/backbone/backbone.2/res_blocks.0/activation/Relu_output_0: 3da77819
/model/backbone_3d/backbone/backbone.2/res_blocks.1/branch2/conv_a/Conv_output_0: 3cc79c32
/model/backbone_3d/backbone/backbone.2/res_blocks.1/branch2/act_a/Relu_output_0: 3cc79c32
/model/backbone_3d/backbone/backbone.2/res_blocks.1/branch2/conv_b/Conv_output_0: 3d60d482
/model/backbone_3d/backbone/backbone.2/res_blocks.1/branch2/act_b/Sigmoid_output_0: 3bfdad93
/model/backbone_3d/backbone/backbone.2/res_blocks.1/branch2/act_b/Mul_output_0: 3cd30f30
/model/backbone_3d/backbone/backbone.2/res_blocks.1/branch2/conv_c/Conv_output_0: 3d470af6
/model/backbone_3d/backbone/backbone.2/res_blocks.1/Add_output_0: 3dca346f
/model/backbone_3d/backbone/backbone.2/res_blocks.1/activation/Relu_output_0: 3dca346f
/model/backbone_3d/backbone/backbone.2/res_blocks.2/branch2/conv_a/Conv_output_0: 3ce4bc3f
/model/backbone_3d/backbone/backbone.2/res_blocks.2/branch2/act_a/Relu_output_0: 3cbe3389
/model/backbone_3d/backbone/backbone.2/res_blocks.2/branch2/conv_b/Conv_output_0: 3c685ceb
/model/backbone_3d/backbone/backbone.2/res_blocks.2/branch2/norm_b/norm_b.1/ReduceMean_output_0: 3c8bf7ed
/model/backbone_3d/backbone/backbone.2/res_blocks.2/branch2/norm_b/norm_b.1/block/block.0/Conv_output_0: 3d3fa0ce
/model/backbone_3d/backbone/backbone.2/res_blocks.2/branch2/norm_b/norm_b.1/block/block.1/Relu_output_0: 3d3fa0ce
/model/backbone_3d/backbone/backbone.2/res_blocks.2/branch2/norm_b/norm_b.1/block/block.2/Conv_output_0: 3ca985a8
/model/backbone_3d/backbone/backbone.2/res_blocks.2/branch2/norm_b/norm_b.1/block/block.3/Sigmoid_output_0: 3bf355ae
/model/backbone_3d/backbone/backbone.2/res_blocks.2/branch2/norm_b/norm_b.1/Mul_output_0: 3c85f1a5
/model/backbone_3d/backbone/backbone.2/res_blocks.2/branch2/act_b/Sigmoid_output_0: 3bee8ddf
/model/backbone_3d/backbone/backbone.2/res_blocks.2/branch2/act_b/Mul_output_0: 3bee7a7d
/model/backbone_3d/backbone/backbone.2/res_blocks.2/branch2/conv_c/Conv_output_0: 3d651eb0
/model/backbone_3d/backbone/backbone.2/res_blocks.2/Add_output_0: 3ded7f82
/model/backbone_3d/backbone/backbone.2/res_blocks.2/activation/Relu_output_0: 3ded7f82
/model/backbone_3d/backbone/backbone.2/res_blocks.3/branch2/conv_a/Conv_output_0: 3cd7962f
/model/backbone_3d/backbone/backbone.2/res_blocks.3/branch2/act_a/Relu_output_0: 3cd3c149
/model/backbone_3d/backbone/backbone.2/res_blocks.3/branch2/conv_b/Conv_output_0: 3d4da10f
/model/backbone_3d/backbone/backbone.2/res_blocks.3/branch2/act_b/Sigmoid_output_0: 3bf80122
/model/backbone_3d/backbone/backbone.2/res_blocks.3/branch2/act_b/Mul_output_0: 3c10aeb4
/model/backbone_3d/backbone/backbone.2/res_blocks.3/branch2/conv_c/Conv_output_0: 3d3af188
/model/backbone_3d/backbone/backbone.2/res_blocks.3/Add_output_0: 3dfc21b9
/model/backbone_3d/backbone/backbone.2/res_blocks.3/activation/Relu_output_0: 3dfc21b9
/model/backbone_3d/backbone/backbone.2/res_blocks.4/branch2/conv_a/Conv_output_0: 3cd2a03f
/model/backbone_3d/backbone/backbone.2/res_blocks.4/branch2/act_a/Relu_output_0: 3d010a65
/model/backbone_3d/backbone/backbone.2/res_blocks.4/branch2/conv_b/Conv_output_0: 3d0008f1
/model/backbone_3d/backbone/backbone.2/res_blocks.4/branch2/norm_b/norm_b.1/ReduceMean_output_0: 3c72107b
/model/backbone_3d/backbone/backbone.2/res_blocks.4/branch2/norm_b/norm_b.1/block/block.0/Conv_output_0: 3bc409ed
/model/backbone_3d/backbone/backbone.2/res_blocks.4/branch2/norm_b/norm_b.1/block/block.1/Relu_output_0: 3bc409ed
/model/backbone_3d/backbone/backbone.2/res_blocks.4/branch2/norm_b/norm_b.1/block/block.2/Conv_output_0: 3c93f9c4
/model/backbone_3d/backbone/backbone.2/res_blocks.4/branch2/norm_b/norm_b.1/block/block.3/Sigmoid_output_0: 3bdcf623
/model/backbone_3d/backbone/backbone.2/res_blocks.4/branch2/norm_b/norm_b.1/Mul_output_0: 3c3335f4
/model/backbone_3d/backbone/backbone.2/res_blocks.4/branch2/act_b/Sigmoid_output_0: 3bcf1d09
/model/backbone_3d/backbone/backbone.2/res_blocks.4/branch2/act_b/Mul_output_0: 3bce2ba2
/model/backbone_3d/backbone/backbone.2/res_blocks.4/branch2/conv_c/Conv_output_0: 3d0ec48f
/model/backbone_3d/backbone/backbone.2/res_blocks.4/Add_output_0: 3e04e364
/model/backbone_3d/backbone/backbone.2/res_blocks.4/activation/Relu_output_0: 3e087a52
/model/backbone_3d/backbone/backbone.3/res_blocks.0/branch1_conv/Conv_output_0: 3d21d459
/model/backbone_3d/backbone/backbone.3/res_blocks.0/branch2/conv_a/Conv_output_0: 3d0dcba6
/model/backbone_3d/backbone/backbone.3/res_blocks.0/branch2/act_a/Relu_output_0: 3d0c5b20
/model/backbone_3d/backbone/backbone.3/res_blocks.0/branch2/conv_b/Conv_output_0: 3c61fd00
/model/backbone_3d/backbone/backbone.3/res_blocks.0/branch2/norm_b/norm_b.1/ReduceMean_output_0: 3c83506e
/model/backbone_3d/backbone/backbone.3/res_blocks.0/branch2/norm_b/norm_b.1/block/block.0/Conv_output_0: 3d22b88c
/model/backbone_3d/backbone/backbone.3/res_blocks.0/branch2/norm_b/norm_b.1/block/block.1/Relu_output_0: 3d22b88c
/model/backbone_3d/backbone/backbone.3/res_blocks.0/branch2/norm_b/norm_b.1/block/block.2/Conv_output_0: 3c969b12
/model/backbone_3d/backbone/backbone.3/res_blocks.0/branch2/norm_b/norm_b.1/block/block.3/Sigmoid_output_0: 3be5e809
/model/backbone_3d/backbone/backbone.3/res_blocks.0/branch2/norm_b/norm_b.1/Mul_output_0: 3bff141b
/model/backbone_3d/backbone/backbone.3/res_blocks.0/branch2/act_b/Sigmoid_output_0: 3bd8d0b8
/model/backbone_3d/backbone/backbone.3/res_blocks.0/branch2/act_b/Mul_output_0: 3bb530fd
/model/backbone_3d/backbone/backbone.3/res_blocks.0/branch2/conv_c/Conv_output_0: 3da7052a
/model/backbone_3d/backbone/backbone.3/res_blocks.0/Add_output_0: 3de9b799
/model/backbone_3d/backbone/backbone.3/res_blocks.0/activation/Relu_output_0: 3dea3307
/model/backbone_3d/backbone/backbone.3/res_blocks.1/branch2/conv_a/Conv_output_0: 3d034146
/model/backbone_3d/backbone/backbone.3/res_blocks.1/branch2/act_a/Relu_output_0: 3d038706
/model/backbone_3d/backbone/backbone.3/res_blocks.1/branch2/conv_b/Conv_output_0: 3d6151c1
/model/backbone_3d/backbone/backbone.3/res_blocks.1/branch2/act_b/Sigmoid_output_0: 3c0a3478
/model/backbone_3d/backbone/backbone.3/res_blocks.1/branch2/act_b/Mul_output_0: 3c0bb2f3
/model/backbone_3d/backbone/backbone.3/res_blocks.1/branch2/conv_c/Conv_output_0: 3d9ce350
/model/backbone_3d/backbone/backbone.3/res_blocks.1/Add_output_0: 3df0cfc4
/model/backbone_3d/backbone/backbone.3/res_blocks.1/activation/Relu_output_0: 3df0cfc4
/model/backbone_3d/backbone/backbone.3/res_blocks.2/branch2/conv_a/Conv_output_0: 3d187433
/model/backbone_3d/backbone/backbone.3/res_blocks.2/branch2/act_a/Relu_output_0: 3cec27fe
/model/backbone_3d/backbone/backbone.3/res_blocks.2/branch2/conv_b/Conv_output_0: 3cd5f113
/model/backbone_3d/backbone/backbone.3/res_blocks.2/branch2/norm_b/norm_b.1/ReduceMean_output_0: 3c6aded8
/model/backbone_3d/backbone/backbone.3/res_blocks.2/branch2/norm_b/norm_b.1/block/block.0/Conv_output_0: 3d432aa9
/model/backbone_3d/backbone/backbone.3/res_blocks.2/branch2/norm_b/norm_b.1/block/block.1/Relu_output_0: 3d407841
/model/backbone_3d/backbone/backbone.3/res_blocks.2/branch2/norm_b/norm_b.1/block/block.2/Conv_output_0: 3cdf956a
/model/backbone_3d/backbone/backbone.3/res_blocks.2/branch2/norm_b/norm_b.1/block/block.3/Sigmoid_output_0: 3c045b95
/model/backbone_3d/backbone/backbone.3/res_blocks.2/branch2/norm_b/norm_b.1/Mul_output_0: 3c2d6906
/model/backbone_3d/backbone/backbone.3/res_blocks.2/branch2/act_b/Sigmoid_output_0: 3bfdb6e3
/model/backbone_3d/backbone/backbone.3/res_blocks.2/branch2/act_b/Mul_output_0: 3c098abe
/model/backbone_3d/backbone/backbone.3/res_blocks.2/branch2/conv_c/Conv_output_0: 3d3992b2
/model/backbone_3d/backbone/backbone.3/res_blocks.2/Add_output_0: 3df99b66
/model/backbone_3d/backbone/backbone.3/res_blocks.2/activation/Relu_output_0: 3dfc081d
/model/backbone_3d/backbone/backbone.3/res_blocks.3/branch2/conv_a/Conv_output_0: 3d12324a
/model/backbone_3d/backbone/backbone.3/res_blocks.3/branch2/act_a/Relu_output_0: 3d119c5c
/model/backbone_3d/backbone/backbone.3/res_blocks.3/branch2/conv_b/Conv_output_0: 3d5b3717
/model/backbone_3d/backbone/backbone.3/res_blocks.3/branch2/act_b/Sigmoid_output_0: 3bff5717
/model/backbone_3d/backbone/backbone.3/res_blocks.3/branch2/act_b/Mul_output_0: 3b7da29a
/model/backbone_3d/backbone/backbone.3/res_blocks.3/branch2/conv_c/Conv_output_0: 3d73661a
/model/backbone_3d/backbone/backbone.3/res_blocks.3/Add_output_0: 3e01c806
/model/backbone_3d/backbone/backbone.3/res_blocks.3/activation/Relu_output_0: 3e0140e6
/model/backbone_3d/backbone/backbone.3/res_blocks.4/branch2/conv_a/Conv_output_0: 3d02047b
/model/backbone_3d/backbone/backbone.3/res_blocks.4/branch2/act_a/Relu_output_0: 3d030d09
/model/backbone_3d/backbone/backbone.3/res_blocks.4/branch2/conv_b/Conv_output_0: 3d0a06c6
/model/backbone_3d/backbone/backbone.3/res_blocks.4/branch2/norm_b/norm_b.1/ReduceMean_output_0: 3c591057
/model/backbone_3d/backbone/backbone.3/res_blocks.4/branch2/norm_b/norm_b.1/block/block.0/Conv_output_0: 3d10bec6
/model/backbone_3d/backbone/backbone.3/res_blocks.4/branch2/norm_b/norm_b.1/block/block.1/Relu_output_0: 3d10bec6
/model/backbone_3d/backbone/backbone.3/res_blocks.4/branch2/norm_b/norm_b.1/block/block.2/Conv_output_0: 3c982338
/model/backbone_3d/backbone/backbone.3/res_blocks.4/branch2/norm_b/norm_b.1/block/block.3/Sigmoid_output_0: 3be9a8ea
/model/backbone_3d/backbone/backbone.3/res_blocks.4/branch2/norm_b/norm_b.1/Mul_output_0: 3c33c67f
/model/backbone_3d/backbone/backbone.3/res_blocks.4/branch2/act_b/Sigmoid_output_0: 3bf5a715
/model/backbone_3d/backbone/backbone.3/res_blocks.4/branch2/act_b/Mul_output_0: 3be0a5a3
/model/backbone_3d/backbone/backbone.3/res_blocks.4/branch2/conv_c/Conv_output_0: 3d0384ee
/model/backbone_3d/backbone/backbone.3/res_blocks.4/Add_output_0: 3e0b4675
/model/backbone_3d/backbone/backbone.3/res_blocks.4/activation/Relu_output_0: 3e11ac7d
/model/backbone_3d/backbone/backbone.3/res_blocks.5/branch2/conv_a/Conv_output_0: 3d278278
/model/backbone_3d/backbone/backbone.3/res_blocks.5/branch2/act_a/Relu_output_0: 3d2326f7
/model/backbone_3d/backbone/backbone.3/res_blocks.5/branch2/conv_b/Conv_output_0: 3e04df76
/model/backbone_3d/backbone/backbone.3/res_blocks.5/branch2/act_b/Sigmoid_output_0: 3bd00803
/model/backbone_3d/backbone/backbone.3/res_blocks.5/branch2/act_b/Mul_output_0: 3b935313
/model/backbone_3d/backbone/backbone.3/res_blocks.5/branch2/conv_c/Conv_output_0: 3d86e463
/model/backbone_3d/backbone/backbone.3/res_blocks.5/Add_output_0: 3e15bed6
/model/backbone_3d/backbone/backbone.3/res_blocks.5/activation/Relu_output_0: 3e15bed6
/model/backbone_3d/backbone/backbone.3/res_blocks.6/branch2/conv_a/Conv_output_0: 3d1547eb
/model/backbone_3d/backbone/backbone.3/res_blocks.6/branch2/act_a/Relu_output_0: 3ce3734c
/model/backbone_3d/backbone/backbone.3/res_blocks.6/branch2/conv_b/Conv_output_0: 3c98f48f
/model/backbone_3d/backbone/backbone.3/res_blocks.6/branch2/norm_b/norm_b.1/ReduceMean_output_0: 3c66595d
/model/backbone_3d/backbone/backbone.3/res_blocks.6/branch2/norm_b/norm_b.1/block/block.0/Conv_output_0: 3d0fe123
/model/backbone_3d/backbone/backbone.3/res_blocks.6/branch2/norm_b/norm_b.1/block/block.1/Relu_output_0: 3d0fe123
/model/backbone_3d/backbone/backbone.3/res_blocks.6/branch2/norm_b/norm_b.1/block/block.2/Conv_output_0: 3cd393a3
/model/backbone_3d/backbone/backbone.3/res_blocks.6/branch2/norm_b/norm_b.1/block/block.3/Sigmoid_output_0: 3bd52149
/model/backbone_3d/backbone/backbone.3/res_blocks.6/branch2/norm_b/norm_b.1/Mul_output_0: 3c34ff1a
/model/backbone_3d/backbone/backbone.3/res_blocks.6/branch2/act_b/Sigmoid_output_0: 3bccb894
/model/backbone_3d/backbone/backbone.3/res_blocks.6/branch2/act_b/Mul_output_0: 3c3eb3b3
/model/backbone_3d/backbone/backbone.3/res_blocks.6/branch2/conv_c/Conv_output_0: 3d3ec814
/model/backbone_3d/backbone/backbone.3/res_blocks.6/Add_output_0: 3e3baeaa
/model/backbone_3d/backbone/backbone.3/res_blocks.6/activation/Relu_output_0: 3e3baeaa
/model/backbone_3d/backbone/backbone.3/res_blocks.7/branch2/conv_a/Conv_output_0: 3d254962
/model/backbone_3d/backbone/backbone.3/res_blocks.7/branch2/act_a/Relu_output_0: 3d35a86c
/model/backbone_3d/backbone/backbone.3/res_blocks.7/branch2/conv_b/Conv_output_0: 3da6e2e8
/model/backbone_3d/backbone/backbone.3/res_blocks.7/branch2/act_b/Sigmoid_output_0: 3bbe86ae
/model/backbone_3d/backbone/backbone.3/res_blocks.7/branch2/act_b/Mul_output_0: 3b85d02b
/model/backbone_3d/backbone/backbone.3/res_blocks.7/branch2/conv_c/Conv_output_0: 3d49f8ec
/model/backbone_3d/backbone/backbone.3/res_blocks.7/Add_output_0: 3e56b4f7
/model/backbone_3d/backbone/backbone.3/res_blocks.7/activation/Relu_output_0: 3e560efd
/model/backbone_3d/backbone/backbone.3/res_blocks.8/branch2/conv_a/Conv_output_0: 3d231095
/model/backbone_3d/backbone/backbone.3/res_blocks.8/branch2/act_a/Relu_output_0: 3d157331
/model/backbone_3d/backbone/backbone.3/res_blocks.8/branch2/conv_b/Conv_output_0: 3d88b2df
/model/backbone_3d/backbone/backbone.3/res_blocks.8/branch2/norm_b/norm_b.1/ReduceMean_output_0: 3c4f7694
/model/backbone_3d/backbone/backbone.3/res_blocks.8/branch2/norm_b/norm_b.1/block/block.0/Conv_output_0: 3d198b14
/model/backbone_3d/backbone/backbone.3/res_blocks.8/branch2/norm_b/norm_b.1/block/block.1/Relu_output_0: 3d198b14
/model/backbone_3d/backbone/backbone.3/res_blocks.8/branch2/norm_b/norm_b.1/block/block.2/Conv_output_0: 3cb7d61d
/model/backbone_3d/backbone/backbone.3/res_blocks.8/branch2/norm_b/norm_b.1/block/block.3/Sigmoid_output_0: 3bfae09e
/model/backbone_3d/backbone/backbone.3/res_blocks.8/branch2/norm_b/norm_b.1/Mul_output_0: 3c2cd48d
/model/backbone_3d/backbone/backbone.3/res_blocks.8/branch2/act_b/Sigmoid_output_0: 3bd1f13a
/model/backbone_3d/backbone/backbone.3/res_blocks.8/branch2/act_b/Mul_output_0: 3b8c1739
/model/backbone_3d/backbone/backbone.3/res_blocks.8/branch2/conv_c/Conv_output_0: 3d405cf1
/model/backbone_3d/backbone/backbone.3/res_blocks.8/Add_output_0: 3e6ac514
/model/backbone_3d/backbone/backbone.3/res_blocks.8/activation/Relu_output_0: 3e529d3c
/model/backbone_3d/backbone/backbone.3/res_blocks.9/branch2/conv_a/Conv_output_0: 3d0c7691
/model/backbone_3d/backbone/backbone.3/res_blocks.9/branch2/act_a/Relu_output_0: 3d4176bc
/model/backbone_3d/backbone/backbone.3/res_blocks.9/branch2/conv_b/Conv_output_0: 3d204cdc
/model/backbone_3d/backbone/backbone.3/res_blocks.9/branch2/act_b/Sigmoid_output_0: 3bcbe56c
/model/backbone_3d/backbone/backbone.3/res_blocks.9/branch2/act_b/Mul_output_0: 3b897dc3
/model/backbone_3d/backbone/backbone.3/res_blocks.9/branch2/conv_c/Conv_output_0: 3d2f70d3
/model/backbone_3d/backbone/backbone.3/res_blocks.9/Add_output_0: 3e7dde71
/model/backbone_3d/backbone/backbone.3/res_blocks.9/activation/Relu_output_0: 3e76318b
/model/backbone_3d/backbone/backbone.3/res_blocks.10/branch2/conv_a/Conv_output_0: 3d059504
/model/backbone_3d/backbone/backbone.3/res_blocks.10/branch2/act_a/Relu_output_0: 3d2b2b33
/model/backbone_3d/backbone/backbone.3/res_blocks.10/branch2/conv_b/Conv_output_0: 3cefea76
/model/backbone_3d/backbone/backbone.3/res_blocks.10/branch2/norm_b/norm_b.1/ReduceMean_output_0: 3c399ef3
/model/backbone_3d/backbone/backbone.3/res_blocks.10/branch2/norm_b/norm_b.1/block/block.0/Conv_output_0: 3cc40f01
/model/backbone_3d/backbone/backbone.3/res_blocks.10/branch2/norm_b/norm_b.1/block/block.1/Relu_output_0: 3cc40f01
/model/backbone_3d/backbone/backbone.3/res_blocks.10/branch2/norm_b/norm_b.1/block/block.2/Conv_output_0: 3c2fd6c7
/model/backbone_3d/backbone/backbone.3/res_blocks.10/branch2/norm_b/norm_b.1/block/block.3/Sigmoid_output_0: 3ba69c24
/model/backbone_3d/backbone/backbone.3/res_blocks.10/branch2/norm_b/norm_b.1/Mul_output_0: 3ccb4e60
/model/backbone_3d/backbone/backbone.3/res_blocks.10/branch2/act_b/Sigmoid_output_0: 3bf57af6
/model/backbone_3d/backbone/backbone.3/res_blocks.10/branch2/act_b/Mul_output_0: 3ca20e3d
/model/backbone_3d/backbone/backbone.3/res_blocks.10/branch2/conv_c/Conv_output_0: 3d8549f8
/model/backbone_3d/backbone/backbone.3/res_blocks.10/Add_output_0: 3e78225f
/model/backbone_3d/backbone/backbone.3/res_blocks.10/activation/Relu_output_0: 3e78225f
/model/backbone_3d/backbone/backbone.4/res_blocks.0/branch1_conv/Conv_output_0: 3d68b732
/model/backbone_3d/backbone/backbone.4/res_blocks.0/branch2/conv_a/Conv_output_0: 3d5085af
/model/backbone_3d/backbone/backbone.4/res_blocks.0/branch2/act_a/Relu_output_0: 3d69993e
/model/backbone_3d/backbone/backbone.4/res_blocks.0/branch2/conv_b/Conv_output_0: 3d82aa28
/model/backbone_3d/backbone/backbone.4/res_blocks.0/branch2/norm_b/norm_b.1/ReduceMean_output_0: 3c545328
/model/backbone_3d/backbone/backbone.4/res_blocks.0/branch2/norm_b/norm_b.1/block/block.0/Conv_output_0: 3cd509ce
/model/backbone_3d/backbone/backbone.4/res_blocks.0/branch2/norm_b/norm_b.1/block/block.1/Relu_output_0: 3cda6f2e
/model/backbone_3d/backbone/backbone.4/res_blocks.0/branch2/norm_b/norm_b.1/block/block.2/Conv_output_0: 3cb3eac8
/model/backbone_3d/backbone/backbone.4/res_blocks.0/branch2/norm_b/norm_b.1/block/block.3/Sigmoid_output_0: 3bdbe544
/model/backbone_3d/backbone/backbone.4/res_blocks.0/branch2/norm_b/norm_b.1/Mul_output_0: 3bd7100d
/model/backbone_3d/backbone/backbone.4/res_blocks.0/branch2/act_b/Sigmoid_output_0: 3be93bf8
/model/backbone_3d/backbone/backbone.4/res_blocks.0/branch2/act_b/Mul_output_0: 3ba43205
/model/backbone_3d/backbone/backbone.4/res_blocks.0/branch2/conv_c/Conv_output_0: 3dd43577
/model/backbone_3d/backbone/backbone.4/res_blocks.0/Add_output_0: 3df5d0af
/model/backbone_3d/backbone/backbone.4/res_blocks.0/activation/Relu_output_0: 3df5d0af
/model/backbone_3d/backbone/backbone.4/res_blocks.1/branch2/conv_a/Conv_output_0: 3d50b913
/model/backbone_3d/backbone/backbone.4/res_blocks.1/branch2/act_a/Relu_output_0: 3d31b669
/model/backbone_3d/backbone/backbone.4/res_blocks.1/branch2/conv_b/Conv_output_0: 3d862707
/model/backbone_3d/backbone/backbone.4/res_blocks.1/branch2/act_b/Sigmoid_output_0: 3c06ddb5
/model/backbone_3d/backbone/backbone.4/res_blocks.1/branch2/act_b/Mul_output_0: 3c712ed1
/model/backbone_3d/backbone/backbone.4/res_blocks.1/branch2/conv_c/Conv_output_0: 3ddcbcca
/model/backbone_3d/backbone/backbone.4/res_blocks.1/Add_output_0: 3df149f1
/model/backbone_3d/backbone/backbone.4/res_blocks.1/activation/Relu_output_0: 3de5e7e7
/model/backbone_3d/backbone/backbone.4/res_blocks.2/branch2/conv_a/Conv_output_0: 3d1a2a20
/model/backbone_3d/backbone/backbone.4/res_blocks.2/branch2/act_a/Relu_output_0: 3d29d213
/model/backbone_3d/backbone/backbone.4/res_blocks.2/branch2/conv_b/Conv_output_0: 3d383c70
/model/backbone_3d/backbone/backbone.4/res_blocks.2/branch2/norm_b/norm_b.1/ReduceMean_output_0: 3c513ad1
/model/backbone_3d/backbone/backbone.4/res_blocks.2/branch2/norm_b/norm_b.1/block/block.0/Conv_output_0: 3d599e67
/model/backbone_3d/backbone/backbone.4/res_blocks.2/branch2/norm_b/norm_b.1/block/block.1/Relu_output_0: 3d47761e
/model/backbone_3d/backbone/backbone.4/res_blocks.2/branch2/norm_b/norm_b.1/block/block.2/Conv_output_0: 3d1577ed
/model/backbone_3d/backbone/backbone.4/res_blocks.2/branch2/norm_b/norm_b.1/block/block.3/Sigmoid_output_0: 3bfd1f88
/model/backbone_3d/backbone/backbone.4/res_blocks.2/branch2/norm_b/norm_b.1/Mul_output_0: 3c3595ce
/model/backbone_3d/backbone/backbone.4/res_blocks.2/branch2/act_b/Sigmoid_output_0: 3bc8c459
/model/backbone_3d/backbone/backbone.4/res_blocks.2/branch2/act_b/Mul_output_0: 3ba0a092
/model/backbone_3d/backbone/backbone.4/res_blocks.2/branch2/conv_c/Conv_output_0: 3d354b81
/model/backbone_3d/backbone/backbone.4/res_blocks.2/Add_output_0: 3df077b8
/model/backbone_3d/backbone/backbone.4/res_blocks.2/activation/Relu_output_0: 3de85236
/model/backbone_3d/backbone/backbone.4/res_blocks.3/branch2/conv_a/Conv_output_0: 3d33da13
/model/backbone_3d/backbone/backbone.4/res_blocks.3/branch2/act_a/Relu_output_0: 3d33da13
/model/backbone_3d/backbone/backbone.4/res_blocks.3/branch2/conv_b/Conv_output_0: 3d721cb1
/model/backbone_3d/backbone/backbone.4/res_blocks.3/branch2/act_b/Sigmoid_output_0: 3c0a21e8
/model/backbone_3d/backbone/backbone.4/res_blocks.3/branch2/act_b/Mul_output_0: 3c25043a
/model/backbone_3d/backbone/backbone.4/res_blocks.3/branch2/conv_c/Conv_output_0: 3db78235
/model/backbone_3d/backbone/backbone.4/res_blocks.3/Add_output_0: 3df1e9c7
/model/backbone_3d/backbone/backbone.4/res_blocks.3/activation/Relu_output_0: 3e089e78
/model/backbone_3d/backbone/backbone.4/res_blocks.4/branch2/conv_a/Conv_output_0: 3d2c8710
/model/backbone_3d/backbone/backbone.4/res_blocks.4/branch2/act_a/Relu_output_0: 3d0dc222
/model/backbone_3d/backbone/backbone.4/res_blocks.4/branch2/conv_b/Conv_output_0: 3cebdec4
/model/backbone_3d/backbone/backbone.4/res_blocks.4/branch2/norm_b/norm_b.1/ReduceMean_output_0: 3c5498c3
/model/backbone_3d/backbone/backbone.4/res_blocks.4/branch2/norm_b/norm_b.1/block/block.0/Conv_output_0: 3d43f5f1
/model/backbone_3d/backbone/backbone.4/res_blocks.4/branch2/norm_b/norm_b.1/block/block.1/Relu_output_0: 3d43f5f1
/model/backbone_3d/backbone/backbone.4/res_blocks.4/branch2/norm_b/norm_b.1/block/block.2/Conv_output_0: 3d088a14
/model/backbone_3d/backbone/backbone.4/res_blocks.4/branch2/norm_b/norm_b.1/block/block.3/Sigmoid_output_0: 3bcda1ce
/model/backbone_3d/backbone/backbone.4/res_blocks.4/branch2/norm_b/norm_b.1/Mul_output_0: 3c6b33c3
/model/backbone_3d/backbone/backbone.4/res_blocks.4/branch2/act_b/Sigmoid_output_0: 3bca5fb6
/model/backbone_3d/backbone/backbone.4/res_blocks.4/branch2/act_b/Mul_output_0: 3bfa83f2
/model/backbone_3d/backbone/backbone.4/res_blocks.4/branch2/conv_c/Conv_output_0: 3d8a6f0d
/model/backbone_3d/backbone/backbone.4/res_blocks.4/Add_output_0: 3df398f1
/model/backbone_3d/backbone/backbone.4/res_blocks.4/activation/Relu_output_0: 3df355c7
/model/backbone_3d/backbone/backbone.4/res_blocks.5/branch2/conv_a/Conv_output_0: 3d73b31d
/model/backbone_3d/backbone/backbone.4/res_blocks.5/branch2/act_a/Relu_output_0: 3d79ae77
/model/backbone_3d/backbone/backbone.4/res_blocks.5/branch2/conv_b/Conv_output_0: 3dd2f053
/model/backbone_3d/backbone/backbone.4/res_blocks.5/branch2/act_b/Sigmoid_output_0: 3bf3c5f8
/model/backbone_3d/backbone/backbone.4/res_blocks.5/branch2/act_b/Mul_output_0: 3c7f1930
/model/backbone_3d/backbone/backbone.4/res_blocks.5/branch2/conv_c/Conv_output_0: 3da110d1
/model/backbone_3d/backbone/backbone.4/res_blocks.5/Add_output_0: 3dfc709e
/model/backbone_3d/backbone/backbone.4/res_blocks.5/activation/Relu_output_0: 3e03f5cb
/model/backbone_3d/backbone/backbone.4/res_blocks.6/branch2/conv_a/Conv_output_0: 3d252cca
/model/backbone_3d/backbone/backbone.4/res_blocks.6/branch2/act_a/Relu_output_0: 3d110377
/model/backbone_3d/backbone/backbone.4/res_blocks.6/branch2/conv_b/Conv_output_0: 3d8c253a
/model/backbone_3d/backbone/backbone.4/res_blocks.6/branch2/norm_b/norm_b.1/ReduceMean_output_0: 3c2c5260
/model/backbone_3d/backbone/backbone.4/res_blocks.6/branch2/norm_b/norm_b.1/block/block.0/Conv_output_0: 3d2cf6e8
/model/backbone_3d/backbone/backbone.4/res_blocks.6/branch2/norm_b/norm_b.1/block/block.1/Relu_output_0: 3d2cf6e8
/model/backbone_3d/backbone/backbone.4/res_blocks.6/branch2/norm_b/norm_b.1/block/block.2/Conv_output_0: 3d2e9828
/model/backbone_3d/backbone/backbone.4/res_blocks.6/branch2/norm_b/norm_b.1/block/block.3/Sigmoid_output_0: 3bd8950f
/model/backbone_3d/backbone/backbone.4/res_blocks.6/branch2/norm_b/norm_b.1/Mul_output_0: 3ca30914
/model/backbone_3d/backbone/backbone.4/res_blocks.6/branch2/act_b/Sigmoid_output_0: 3bd43045
/model/backbone_3d/backbone/backbone.4/res_blocks.6/branch2/act_b/Mul_output_0: 3bb547e2
/model/backbone_3d/backbone/backbone.4/res_blocks.6/branch2/conv_c/Conv_output_0: 3dddca56
/model/backbone_3d/backbone/backbone.4/res_blocks.6/Add_output_0: 3dfc20e3
/model/backbone_3d/backbone/backbone.4/res_blocks.6/activation/Relu_output_0: 3ddba4b5
/model/backbone_3d/backbone/ReduceMean_output_0: 3d916dcf
/model/cls_channel_encoders.0/fuse_convs/fuse_convs.3/convs/convs.2/Mul_output_0: 3c90973f
/model/backbone_3d/backbone/Squeeze_output_0: 3d916dcf
/model/backbone_2d/backbone/model.0/conv/Conv_output_0: 3d9d862c
/model/backbone_2d/backbone/model.0/act/Sigmoid_output_0: 3c015201
/model/backbone_2d/backbone/model.0/act/Mul_output_0: 3d3db553
/model/backbone_2d/backbone/model.1/conv/Conv_output_0: 3d220a87
/model/backbone_2d/backbone/model.1/act/Sigmoid_output_0: 3bfed33b
/model/backbone_2d/backbone/model.1/act/Mul_output_0: 3d21bd7e
/model/backbone_2d/backbone/model.2/cv1/conv/Conv_output_0: 3d2ee606
/model/backbone_2d/backbone/model.2/cv1/act/Sigmoid_output_0: 3c0088d3
/model/backbone_2d/backbone/model.2/cv1/act/Mul_output_0: 3d403753
/model/reg_channel_encoders.2/fuse_convs/fuse_convs.2/Reshape_output_0: 3ca584b4
/model/backbone_2d/backbone/model.22/m.0/m/m.0/cv2/conv/Conv_output_0: 3d3f0673
/model/Transpose_17_output_0: 3cc96476
/model/reg_channel_encoders.0/fuse_convs/fuse_convs.2/Expand_output_0: 41216138
/model/Constant_180_output_0_output: 3e810a14
/model/backbone_2d/backbone/model.19/m.0/m/m.0/Add_output_0: 3cfe3cdc
/model/backbone_2d/backbone/model.19/m.0/m/m.0/cv1/act/Sigmoid_output_0: 3bf9ee27
/model/reg_channel_encoders.0/fuse_convs/fuse_convs.2/MatMul_output_0: 40b34335
/model/reg_channel_encoders.2/fuse_convs/fuse_convs.2/Reshape_1_output_0: 3ca584b4
/model/backbone_2d/backbone/model.22/Slice_1_output_0: 3d0248fe
/model/backbone_2d/backbone/model.19/m.0/m/m.0/cv1/conv/Conv_output_0: 3d414c73
/model/reg_channel_encoders.0/fuse_convs/fuse_convs.2/Transpose_output_0: 3c5af0eb
/model/backbone_2d/backbone/model.22/m.0/m/m.1/cv2/act/Mul_output_0: 3d290a4e
/model/Constant_118_output_0_output: 3e010a14
/model/reg_channel_encoders.0/fuse_convs/fuse_convs.1/convs/convs.2/Sigmoid_output_0: 3bf7a196
/model/reg_preds.0/Conv_output_0: 3d3f3f90
/model/backbone_2d/backbone/model.22/m.0/cv1/act/Sigmoid_output_0: 3bfad139
/model/Mul_5_output_0: 3de6329c
/model/backbone_2d/backbone/model.19/m.0/cv2/conv/Conv_output_0: 3d5194b8
/model/backbone_2d/backbone/model.22/m.0/cv2/conv/Conv_output_0: 3d5868dd
/model/Transpose_10_output_0: 3d6d324d
/model/heads.0/reg_head/reg_head.1/convs/convs.0/Conv_output_0: 3cd3218e
ONNXTRT_Broadcast_1581_output: 3a18e9d8
/model/heads.0/reg_head/reg_head.1/convs/convs.2/Mul_output_0: 3cb1b45c
/model/cls_channel_encoders.2/fuse_convs/fuse_convs.3/convs/convs.2/Mul_output_0: 3c875c6a
ONNXTRT_Broadcast_2041_output: 3e810a14
/model/Cast_output_0: 3e59c102
/model/Constant_185_output_0_output: 3e810a14
/model/backbone_2d/backbone/model.19/m.0/cv3/act/Mul_output_0: 3ce88ea7
/model/Reshape_1_output_0: 3de3b45a
/model/backbone_2d/backbone/model.22/m.0/m/m.1/cv2/conv/Conv_output_0: 3db639b3
model.reg_channel_encoders.0.fuse_convs.2.gamma_output: 39e6274a
/model/backbone_2d/backbone/model.2/Slice_output_0: 3d269c36
/model/cls_channel_encoders.0/fuse_convs/fuse_convs.2/MatMul_1_output_0: 3cb0a6c2
/model/Constant_8_output_0_output: 3b810a14
/model/backbone_2d/backbone/model.22/m.0/cv3/act/Mul_output_0: 3d02539a
/model/Add_output_0: 3e5dc953
/model/cls_channel_encoders.0/fuse_convs/fuse_convs.2/Transpose_output_0: 3cb0a6c2
ONNXTRT_Broadcast_574_output: 3d810a14
/model/cls_channel_encoders.0/fuse_convs/fuse_convs.0/convs/convs.2/Sigmoid_output_0: 3bf9d807
/model/Cast_1_output_0: 3fddc953
/model/Transpose_15_output_0: 3dad9bf4
/model/Mul_1_output_0: 3d3a89be
/model/Transpose_14_output_0: 3d9e87e6
/model/heads.0/cls_head/cls_head.0/convs/convs.2/Mul_output_0: 3cb0e9d7
/model/Sub_2_output_0: 3fd6bcc5
/model/reg_channel_encoders.0/fuse_convs/fuse_convs.2/Reshape_output_0: 3c5af0eb
/model/backbone_2d/backbone/model.19/m.0/m/m.1/cv1/conv/Conv_output_0: 3d2f7e36
/model/reg_channel_encoders.0/fuse_convs/fuse_convs.2/Add_output_0: 3c8063ec
/model/Transpose_13_output_0: 3da92307
/model/reg_channel_encoders.0/fuse_convs/fuse_convs.3/convs/convs.2/Mul_output_0: 3c99a6e1
/model/backbone_2d/backbone/model.22/cv1/act/Mul_output_0: 3d01437f
/model/backbone_2d/backbone/model.19/m.0/Concat_output_0: 3d43d93d
/model/cls_channel_encoders.0/fuse_convs/fuse_convs.5/Conv_output_0: 3c2ea55b
/model/reg_channel_encoders.2/Concat_output_0: 3d91b938
/model/cls_channel_encoders.2/fuse_convs/fuse_convs.2/Mul_output_0: 3b343fc9
/model/cls_channel_encoders.2/fuse_convs/fuse_convs.3/convs/convs.0/Conv_output_0: 3d0dc681
/model/reg_channel_encoders.0/fuse_convs/fuse_convs.3/convs/convs.2/Sigmoid_output_0: 3bee1f6b
/model/backbone_2d/backbone/model.2/Slice_1_output_0: 3d3c6cf3
/model/backbone_2d/backbone/model.2/m.0/cv1/conv/Conv_output_0: 3c9137b7
/model/backbone_2d/backbone/model.2/m.0/cv1/act/Sigmoid_output_0: 3be7295f
/model/backbone_2d/backbone/model.2/m.0/cv1/act/Mul_output_0: 3c814c77
/model/backbone_2d/backbone/model.2/m.0/m/m.0/cv1/conv/Conv_output_0: 3d0b8fe6
/model/backbone_2d/backbone/model.2/m.0/m/m.0/cv1/act/Sigmoid_output_0: 3bfdc2d9
/model/backbone_2d/backbone/model.2/m.0/m/m.0/cv1/act/Mul_output_0: 3cc17cf5
/model/backbone_2d/backbone/model.2/m.0/m/m.0/cv2/conv/Conv_output_0: 3cc6d26a
/model/backbone_2d/backbone/model.2/m.0/m/m.0/cv2/act/Sigmoid_output_0: 3bf56d3c
/model/backbone_2d/backbone/model.2/m.0/m/m.0/cv2/act/Mul_output_0: 3cbee2dc
/model/backbone_2d/backbone/model.2/m.0/m/m.0/Add_output_0: 3cf36b6d
/model/backbone_2d/backbone/model.2/m.0/m/m.1/cv1/conv/Conv_output_0: 3d34e2e6
/model/backbone_2d/backbone/model.2/m.0/m/m.1/cv1/act/Sigmoid_output_0: 3bfb3e6d
/model/backbone_2d/backbone/model.2/m.0/m/m.1/cv1/act/Mul_output_0: 3ca511db
/model/backbone_2d/backbone/model.2/m.0/m/m.1/cv2/conv/Conv_output_0: 3d0a5d8a
/model/backbone_2d/backbone/model.2/m.0/m/m.1/cv2/act/Sigmoid_output_0: 3bfd66ed
/model/backbone_2d/backbone/model.2/m.0/m/m.1/cv2/act/Mul_output_0: 3d00e5a8
/model/backbone_2d/backbone/model.2/m.0/m/m.1/Add_output_0: 3d549d29
/model/backbone_2d/backbone/model.2/m.0/cv2/conv/Conv_output_0: 3d75a0fc
/model/backbone_2d/backbone/model.2/m.0/cv2/act/Sigmoid_output_0: 3bfc9384
/model/backbone_2d/backbone/model.2/m.0/cv2/act/Mul_output_0: 3c67cc70
/model/backbone_2d/backbone/model.2/m.0/Concat_output_0: 3d6738ba
/model/backbone_2d/backbone/model.2/m.0/cv3/conv/Conv_output_0: 3d8cd32e
/model/backbone_2d/backbone/model.2/m.0/cv3/act/Sigmoid_output_0: 3c008586
/model/backbone_2d/backbone/model.2/m.0/cv3/act/Mul_output_0: 3d2751d6
/model/backbone_2d/backbone/model.2/Concat_output_0: 3d2751d6
/model/backbone_2d/backbone/model.2/cv2/conv/Conv_output_0: 3d398446
/model/backbone_2d/backbone/model.2/cv2/act/Sigmoid_output_0: 3bfecd05
/model/backbone_2d/backbone/model.2/cv2/act/Mul_output_0: 3bfc6f45
/model/backbone_2d/backbone/model.3/conv/Conv_output_0: 3d09d2df
/model/backbone_2d/backbone/model.3/act/Sigmoid_output_0: 3bf74aa9
/model/backbone_2d/backbone/model.3/act/Mul_output_0: 3c7fc4b7
/model/backbone_2d/backbone/model.4/cv1/conv/Conv_output_0: 3d13fbb8
/model/backbone_2d/backbone/model.4/cv1/act/Sigmoid_output_0: 3c01114e
/model/backbone_2d/backbone/model.4/cv1/act/Mul_output_0: 3c919c6f
/model/cls_channel_encoders.0/fuse_convs/fuse_convs.1/convs/convs.0/Conv_output_0: 3cbaa434
/model/Reshape_19_output_0: 3d87846b
/Concat_output_0: 3de5d5e7
/model/backbone_2d/backbone/model.20/act/Sigmoid_output_0: 3c00c1bc
/model/cls_channel_encoders.0/fuse_convs/fuse_convs.2/Sub_output_0: 4181d138
/model/backbone_2d/backbone/model.19/m.0/m/m.1/cv2/conv/Conv_output_0: 3dace447
/model/Reshape_output_0: 3e59c102
/model/backbone_2d/backbone/model.19/m.0/m/m.0/cv2/act/Sigmoid_output_0: 3bfd7859
/model/backbone_2d/backbone/model.19/Slice_1_output_0: 3cb2bb45
/model/backbone_2d/backbone/model.19/m.0/cv2/act/Mul_output_0: 3cc23174
/model/backbone_2d/backbone/model.22/m.0/m/m.0/Add_output_0: 3cdb4245
/model/reg_channel_encoders.2/fuse_convs/fuse_convs.0/convs/convs.0/Conv_output_0: 3d0d274c
/model/heads.2/cls_head/cls_head.0/convs/convs.0/Conv_output_0: 3ce634de
/model/backbone_2d/backbone/model.22/m.0/m/m.0/cv2/act/Sigmoid_output_0: 3bfd634a
/model/heads.2/cls_head/cls_head.0/convs/convs.2/Sigmoid_output_0: 3bfa21a6
/model/Mul_9_output_0: 3ea00cb4
/model/backbone_2d/backbone/model.22/m.0/cv1/conv/Conv_output_0: 3d0d377f
/model/backbone_2d/backbone/model.22/m.0/m/m.1/cv1/act/Sigmoid_output_0: 3bffa36c
/model/heads.2/reg_head/reg_head.0/convs/convs.2/Sigmoid_output_0: 3bece63c
/model/obj_preds.2/Conv_output_0: 3da92307
/model/Exp_1_output_0: 3d2ffa46
ONNXTRT_Broadcast_1013_output: 3fddc953
/model/heads.2/reg_head/reg_head.1/convs/convs.2/Mul_output_0: 3cc24aa0
/model/heads.0/cls_head/cls_head.1/convs/convs.2/Sigmoid_output_0: 3bf981ba
/model/heads.2/reg_head/reg_head.0/convs/convs.0/Conv_output_0: 3c83fe79
/model/heads.2/cls_head/cls_head.1/convs/convs.0/Conv_output_0: 3d046a46
/model/Add_8_output_0: 3fe44f74
/model/interact_preds.2/Conv_output_0: 3d87846b
/model/reg_preds.2/Conv_output_0: 3cc96476
/model/Add_4_output_0: 3fdfa782
/model/Slice_13_output_0: 3d53ec7e
/model/Exp_output_0: 3caed75c
/model/reg_channel_encoders.2/fuse_convs/fuse_convs.3/convs/convs.2/Sigmoid_output_0: 3c054172
/model/backbone_2d/backbone/model.19/m.0/m/m.1/cv2/act/Mul_output_0: 3d27fb7d
/model/heads.2/reg_head/reg_head.1/convs/convs.0/Conv_output_0: 3cc8c521
/model/backbone_2d/backbone/model.4/Slice_output_0: 3c807eec
/model/Sub_output_0: 3fdf219b
/model/Add_2_output_0: 3fe087cd
/model/reg_channel_encoders.2/fuse_convs/fuse_convs.3/convs/convs.2/Mul_output_0: 3c806af4
/model/Concat_7_output_0: 3fe0c004
/model/reg_channel_encoders.2/fuse_convs/fuse_convs.3/convs/convs.0/Conv_output_0: 3d0112ad
/model/heads.2/cls_head/cls_head.1/convs/convs.2/Mul_output_0: 3ce68ac8
/model/act_preds.2/Conv_output_0: 3d9e87e6
/model/reg_channel_encoders.0/fuse_convs/fuse_convs.0/convs/convs.0/Conv_output_0: 3cd59a2e
/model/Mul_2_output_0: 3e2ed75c
/model/backbone_2d/backbone/model.22/m.0/Concat_output_0: 3d111a19
/model/rel_preds.2/Conv_output_0: 3dad9bf4
/model/cls_channel_encoders.0/fuse_convs/fuse_convs.2/Add_output_0: 3cad79d1
/model/Constant_62_output_0_output: 3b810a14
/model/cls_channel_encoders.0/fuse_convs/fuse_convs.0/convs/convs.0/Conv_output_0: 3ce121f5
/model/Resize_1_output_0: 3d916dcf
/model/heads.2/cls_head/cls_head.1/convs/convs.2/Sigmoid_output_0: 3bfc2c23
/model/heads.0/reg_head/reg_head.1/convs/convs.2/Sigmoid_output_0: 3bf66c0d
/model/interact_preds.0/Conv_output_0: 3dd25e57
/model/Constant_133_output_0_output: 3e810a14
/model/Reshape_2_output_0: 3d914edf
/model/Transpose_2_output_0: 3d79194b
/model/backbone_2d/backbone/model.19/m.0/cv2/act/Sigmoid_output_0: 3c013b46
/model/Mul_3_output_0: 3daed75c
/model/backbone_2d/backbone/model.19/Concat_output_0: 3cd156d8
/model/backbone_2d/backbone/model.4/Slice_1_output_0: 3ce87cae
/model/backbone_2d/backbone/model.4/m.0/cv1/conv/Conv_output_0: 3ce06c38
/model/backbone_2d/backbone/model.4/m.0/cv1/act/Sigmoid_output_0: 3bf91443
/model/backbone_2d/backbone/model.4/m.0/cv1/act/Mul_output_0: 3cb14ec4
/model/backbone_2d/backbone/model.4/m.0/m/m.0/cv1/conv/Conv_output_0: 3d0afc8e
/model/backbone_2d/backbone/model.4/m.0/m/m.0/cv1/act/Sigmoid_output_0: 3bfb56e8
/model/backbone_2d/backbone/model.4/m.0/m/m.0/cv1/act/Mul_output_0: 3c884a7a
/model/backbone_2d/backbone/model.4/m.0/m/m.0/cv2/conv/Conv_output_0: 3cd98435
/model/backbone_2d/backbone/model.4/m.0/m/m.0/cv2/act/Sigmoid_output_0: 3bf7ba64
/model/backbone_2d/backbone/model.4/m.0/m/m.0/cv2/act/Mul_output_0: 3ca548ac
/model/backbone_2d/backbone/model.4/m.0/m/m.0/Add_output_0: 3cf88b08
/model/backbone_2d/backbone/model.4/m.0/m/m.1/cv1/conv/Conv_output_0: 3d01ac93
/model/backbone_2d/backbone/model.4/m.0/m/m.1/cv1/act/Sigmoid_output_0: 3bfbc1ff
/model/backbone_2d/backbone/model.4/m.0/m/m.1/cv1/act/Mul_output_0: 3c3fcfe8
/model/backbone_2d/backbone/model.4/m.0/m/m.1/cv2/conv/Conv_output_0: 3d0e9aed
/model/backbone_2d/backbone/model.4/m.0/m/m.1/cv2/act/Sigmoid_output_0: 3bfe66cc
/model/backbone_2d/backbone/model.4/m.0/m/m.1/cv2/act/Mul_output_0: 3d3f0ca9
/model/backbone_2d/backbone/model.4/m.0/m/m.1/Add_output_0: 3d5a78c9
/model/backbone_2d/backbone/model.4/m.0/cv2/conv/Conv_output_0: 3d24a14d
/model/backbone_2d/backbone/model.4/m.0/cv2/act/Sigmoid_output_0: 3c0033d4
/model/backbone_2d/backbone/model.4/m.0/cv2/act/Mul_output_0: 3c3271e5
/model/backbone_2d/backbone/model.4/m.0/Concat_output_0: 3d27004b
/model/backbone_2d/backbone/model.4/m.0/cv3/conv/Conv_output_0: 3d0f83af
/model/backbone_2d/backbone/model.4/m.0/cv3/act/Sigmoid_output_0: 3bfa56f4
/model/backbone_2d/backbone/model.4/m.0/cv3/act/Mul_output_0: 3c99b7a4
/model/backbone_2d/backbone/model.4/Concat_output_0: 3cb3176d
/model/backbone_2d/backbone/model.4/cv2/conv/Conv_output_0: 3d2ef964
/model/backbone_2d/backbone/model.4/cv2/act/Sigmoid_output_0: 3bf5eb03
/model/backbone_2d/backbone/model.4/cv2/act/Mul_output_0: 3c0ff25c
/model/backbone_2d/backbone/model.5/conv/Conv_output_0: 3dd6d8bc
/model/backbone_2d/backbone/model.5/act/Sigmoid_output_0: 3c135697
/model/backbone_2d/backbone/model.5/act/Mul_output_0: 3c87a62f
/model/backbone_2d/backbone/model.6/cv1/conv/Conv_output_0: 3da62916
/model/backbone_2d/backbone/model.6/cv1/act/Sigmoid_output_0: 3c0035f2
/model/backbone_2d/backbone/model.6/cv1/act/Mul_output_0: 3cb15c26
ONNXTRT_Broadcast_1048_output: 3d810a14
/model/reg_channel_encoders.0/fuse_convs/fuse_convs.0/convs/convs.2/Sigmoid_output_0: 3bf6976f
/model/Constant_61_output_0_output: 3d810a14
/model/Concat_15_output_0: 3ffdf846
/model/cls_channel_encoders.0/fuse_convs/fuse_convs.3/convs/convs.0/Conv_output_0: 3cbdfd2f
ONNXTRT_Broadcast_1050_output: 3b810a14
/model/Reshape_15_output_0: 3dc0fd8d
/model/obj_preds.0/Conv_output_0: 3d914edf
/model/cls_channel_encoders.2/fuse_convs/fuse_convs.5/Conv_output_0: 3c319a5f
/model/Transpose_1_output_0: 3d914edf
ONNXTRT_Broadcast_1528_output: 3fd9c102
/model/cls_channel_encoders.0/fuse_convs/fuse_convs.1/convs/convs.2/Mul_output_0: 3cb0a6c2
/model/Reshape_17_output_0: 3d9e87e6
/model/reg_channel_encoders.0/fuse_convs/fuse_convs.0/convs/convs.2/Mul_output_0: 3ca5b039
/model/backbone_2d/backbone/model.19/cv2/act/Mul_output_0: 3d299982
/model/reg_channel_encoders.0/fuse_convs/fuse_convs.2/MatMul_1_output_0: 3c8684ee
/model/backbone_2d/backbone/model.22/cv2/conv/Conv_output_0: 3d8a6b5a
/model/backbone_2d/backbone/model.19/m.0/cv3/conv/Conv_output_0: 3da7b67a
/model/heads.0/reg_head/reg_head.0/convs/convs.0/Conv_output_0: 3cb7fe33
/model/backbone_2d/backbone/model.19/m.0/m/m.0/cv1/act/Mul_output_0: 3c40a813
/model/backbone_2d/backbone/model.22/m.0/cv1/act/Mul_output_0: 3c740355
/model/cls_channel_encoders.0/fuse_convs/fuse_convs.2/Reshape_output_0: 3cb0a6c2
/model/cls_channel_encoders.0/fuse_convs/fuse_convs.2/MatMul_output_0: 4119700e
/model/backbone_2d/backbone/model.19/cv2/conv/Conv_output_0: 3d9d2081
/model/backbone_2d/backbone/model.19/m.0/m/m.1/cv1/act/Sigmoid_output_0: 3bff5d4a
ONNXTRT_Broadcast_1604_output: 3e810a14
/model/Reshape_10_output_0: 3d913222
/model/cls_channel_encoders.1/fuse_convs/fuse_convs.0/convs/convs.2/Mul_output_0: 3ce6eb83
/model/cls_channel_encoders.1/fuse_convs/fuse_convs.1/convs/convs.2/Sigmoid_output_0: 3bfaffc8
/model/cls_channel_encoders.1/fuse_convs/fuse_convs.1/convs/convs.2/Mul_output_0: 3cb155c7
/model/cls_channel_encoders.1/fuse_convs/fuse_convs.1/convs/convs.0/Conv_output_0: 3d2201ee
/model/cls_channel_encoders.1/fuse_convs/fuse_convs.0/convs/convs.2/Sigmoid_output_0: 3c0063ad
/model/cls_channel_encoders.1/fuse_convs/fuse_convs.2/Reshape_output_0: 3cb155c7
/model/backbone_2d/backbone/model.6/Slice_output_0: 3b103414
/model/reg_channel_encoders.2/fuse_convs/fuse_convs.1/convs/convs.0/Conv_output_0: 3d064ccc
/model/cls_channel_encoders.1/fuse_convs/fuse_convs.2/ReduceMax_output_0: 40d82d39
/model/reg_channel_encoders.2/fuse_convs/fuse_convs.0/convs/convs.2/Mul_output_0: 3ce5ef4f
/model/cls_channel_encoders.0/fuse_convs/fuse_convs.2/Mul_output_0: 39ae1630
/model/cls_channel_encoders.1/fuse_convs/fuse_convs.2/Transpose_output_0: 3cb155c7
/model/cls_channel_encoders.1/fuse_convs/fuse_convs.2/Reshape_2_output_0: 3cb155c7
/model/reg_channel_encoders.0/fuse_convs/fuse_convs.2/Mul_output_0: 3a6fed67
/model/backbone_2d/backbone/model.22/m.0/m/m.0/cv1/conv/Conv_output_0: 3d344cea
/model/cls_channel_encoders.1/Concat_output_0: 3d6dabec
/model/Add_7_output_0: 3fe4ffc3
/model/Transpose_9_output_0: 3d822fb9
/model/cls_channel_encoders.1/fuse_convs/fuse_convs.2/Reshape_1_output_0: 3cb155c7
/model/Cast_5_output_0: 3fd1b061
/model/Reshape_14_output_0: 3d418f1e
/model/cls_channel_encoders.1/fuse_convs/fuse_convs.2/Sub_output_0: 40ab132f
/model/cls_channel_encoders.1/fuse_convs/fuse_convs.2/softmax/Softmax_output: 3c011215
/model/cls_channel_encoders.1/fuse_convs/fuse_convs.2/Expand_output_0: 40d82d39
/model/cls_channel_encoders.1/fuse_convs/fuse_convs.2/MatMul_output_0: 40622f7a
/model/cls_channel_encoders.1/fuse_convs/fuse_convs.2/softmax/Softmax_output_0: 3c011215
/model/cls_channel_encoders.2/fuse_convs/fuse_convs.0/convs/convs.2/Sigmoid_output_0: 3bfe1ebf
model.cls_channel_encoders.1.fuse_convs.2.gamma_output: 399f3410
ONNXTRT_Broadcast_1066_output: 399f3410
/model/reg_channel_encoders.1/fuse_convs/fuse_convs.1/convs/convs.0/Conv_output_0: 3d1e3752
/model/Transpose_12_output_0: 3dc0fd8d
/model/reg_channel_encoders.1/fuse_convs/fuse_convs.1/convs/convs.2/Sigmoid_output_0: 3c015fce
/model/backbone_2d/backbone/model.6/Slice_1_output_0: 3cb15c26
/model/backbone_2d/backbone/model.6/m.0/cv1/conv/Conv_output_0: 3d122a1d
/model/backbone_2d/backbone/model.6/m.0/cv1/act/Sigmoid_output_0: 3bea2416
/model/backbone_2d/backbone/model.6/m.0/cv1/act/Mul_output_0: 3c870c74
/model/backbone_2d/backbone/model.6/m.0/m/m.0/cv1/conv/Conv_output_0: 3d64fe96
/model/backbone_2d/backbone/model.6/m.0/m/m.0/cv1/act/Sigmoid_output_0: 3bfef87f
/model/backbone_2d/backbone/model.6/m.0/m/m.0/cv1/act/Mul_output_0: 3c806552
/model/backbone_2d/backbone/model.6/m.0/m/m.0/cv2/conv/Conv_output_0: 3d48d617
/model/backbone_2d/backbone/model.6/m.0/m/m.0/cv2/act/Sigmoid_output_0: 3c0553a6
/model/backbone_2d/backbone/model.6/m.0/m/m.0/cv2/act/Mul_output_0: 3d11dd75
/model/backbone_2d/backbone/model.6/m.0/m/m.0/Add_output_0: 3d30020c
/model/backbone_2d/backbone/model.6/m.0/m/m.1/cv1/conv/Conv_output_0: 3d8206fc
/model/backbone_2d/backbone/model.6/m.0/m/m.1/cv1/act/Sigmoid_output_0: 3c05b10a
/model/backbone_2d/backbone/model.6/m.0/m/m.1/cv1/act/Mul_output_0: 3cd28fbc
/model/backbone_2d/backbone/model.6/m.0/m/m.1/cv2/conv/Conv_output_0: 3df8186a
/model/backbone_2d/backbone/model.6/m.0/m/m.1/cv2/act/Sigmoid_output_0: 3c063c75
/model/backbone_2d/backbone/model.6/m.0/m/m.1/cv2/act/Mul_output_0: 3d9379c5
/model/backbone_2d/backbone/model.6/m.0/m/m.1/Add_output_0: 3deea968
/model/backbone_2d/backbone/model.6/m.0/cv2/conv/Conv_output_0: 3d430826
/model/backbone_2d/backbone/model.6/m.0/cv2/act/Sigmoid_output_0: 3c009501
/model/backbone_2d/backbone/model.6/m.0/cv2/act/Mul_output_0: 3cb19195
/model/backbone_2d/backbone/model.6/m.0/Concat_output_0: 3d95d8d5
/model/backbone_2d/backbone/model.6/m.0/cv3/conv/Conv_output_0: 3dbc6f4d
/model/backbone_2d/backbone/model.6/m.0/cv3/act/Sigmoid_output_0: 3c0abed6
/model/backbone_2d/backbone/model.6/m.0/cv3/act/Mul_output_0: 3d27bece
/model/backbone_2d/backbone/model.6/Concat_output_0: 3d27bece
/model/backbone_2d/backbone/model.6/cv2/conv/Conv_output_0: 3de21d8b
/model/backbone_2d/backbone/model.6/cv2/act/Sigmoid_output_0: 3c027aa6
/model/backbone_2d/backbone/model.6/cv2/act/Mul_output_0: 3ca4399a
/model/backbone_2d/backbone/model.7/conv/Conv_output_0: 3d8e9957
/model/backbone_2d/backbone/model.7/act/Sigmoid_output_0: 3c020f05
/model/backbone_2d/backbone/model.7/act/Mul_output_0: 3cc199d4
/model/backbone_2d/backbone/model.8/cv1/conv/Conv_output_0: 3d7d9d08
/model/backbone_2d/backbone/model.8/cv1/act/Sigmoid_output_0: 3c00f858
/model/backbone_2d/backbone/model.8/cv1/act/Mul_output_0: 3d00009a
ONNXTRT_Broadcast_2043_output: 3fd1b061
/model/Reshape_13_output_0: 3cd91fa5
/model/reg_channel_encoders.1/fuse_convs/fuse_convs.2/ReduceMax_output_0: 40dbd63d
/model/reg_channel_encoders.1/fuse_convs/fuse_convs.0/convs/convs.2/Sigmoid_output_0: 3c002bcd
/model/reg_channel_encoders.1/fuse_convs/fuse_convs.0/convs/convs.2/Mul_output_0: 3d01a8da
/model/Reshape_20_output_0: 3cc96476
/model/reg_channel_encoders.1/fuse_convs/fuse_convs.2/MatMul_output_0: 40522aa8
/model/backbone_2d/backbone/model.22/m.0/m/m.1/cv1/conv/Conv_output_0: 3d317aab
/model/reg_channel_encoders.1/fuse_convs/fuse_convs.2/Reshape_2_output_0: 3ce68f82
/Concat_3_output_0: 3da80c85
/model/cls_channel_encoders.1/fuse_convs/fuse_convs.2/Mul_output_0: 3a8b7509
/model/cls_channel_encoders.1/fuse_convs/fuse_convs.3/convs/convs.2/Sigmoid_output_0: 3bf710da
/model/heads.2/reg_head/reg_head.1/convs/convs.2/Sigmoid_output_0: 3bf68139
/model/cls_channel_encoders.1/fuse_convs/fuse_convs.3/convs/convs.2/Mul_output_0: 3cb19d86
/model/cls_channel_encoders.1/fuse_convs/fuse_convs.5/Conv_output_0: 3c83ebd1
/model/cls_channel_encoders.1/fuse_convs/fuse_convs.2/MatMul_1_output_0: 3ce211a2
/model/cls_channel_encoders.1/fuse_convs/fuse_convs.2/Reshape_3_output_0: 3ce211a2
/model/cls_channel_encoders.1/fuse_convs/fuse_convs.2/Add_output_0: 3cc8e2b4
/model/reg_channel_encoders.1/Concat_output_0: 3d6dabec
/model/reg_channel_encoders.1/fuse_convs/fuse_convs.0/convs/convs.0/Conv_output_0: 3d302643
/model/cls_channel_encoders.1/fuse_convs/fuse_convs.3/convs/convs.0/Conv_output_0: 3cea15d5
/model/reg_channel_encoders.1/fuse_convs/fuse_convs.2/Reshape_output_0: 3ce68f82
/model/reg_channel_encoders.1/fuse_convs/fuse_convs.2/Reshape_1_output_0: 3ce68f82
/model/Transpose_3_output_0: 3da3e7cc
/model/backbone_2d/backbone/model.22/m.0/m/m.0/cv2/act/Mul_output_0: 3ca58f8d
/model/Reshape_3_output_0: 3d79194b
/model/conf_preds.2/Conv_output_0: 3dc0fd8d
/model/Reshape_16_output_0: 3da92307
/model/heads.2/reg_head/reg_head.0/convs/convs.2/Mul_output_0: 3c66e193
/model/reg_channel_encoders.1/fuse_convs/fuse_convs.2/Transpose_output_0: 3ce68f82
/model/reg_channel_encoders.1/fuse_convs/fuse_convs.2/Mul_output_0: 3aabdeba
/model/reg_channel_encoders.1/fuse_convs/fuse_convs.2/Add_output_0: 3d02fcd4
/Concat_1_output_0: 3d9cc8d9
/model/reg_channel_encoders.1/fuse_convs/fuse_convs.1/convs/convs.2/Mul_output_0: 3ce68f82
/model/reg_channel_encoders.1/fuse_convs/fuse_convs.2/Expand_output_0: 40dbd63d
/model/backbone_2d/backbone/model.8/Slice_output_0: 3d00009a
/model/heads.1/cls_head/cls_head.0/convs/convs.0/Conv_output_0: 3d05ed9b
/model/heads.1/cls_head/cls_head.0/convs/convs.2/Sigmoid_output_0: 3c094a04
/model/Transpose_16_output_0: 3d87846b
ONNXTRT_Broadcast_1082_output: 399d70de
/model/reg_channel_encoders.1/fuse_convs/fuse_convs.2/softmax/Softmax_output_0: 3c010a14
/model/reg_channel_encoders.0/Concat_output_0: 3d916dcf
/model/reg_channel_encoders.1/fuse_convs/fuse_convs.2/softmax/Softmax_output: 3c010a14
/model/reg_channel_encoders.1/fuse_convs/fuse_convs.2/MatMul_1_output_0: 3d0cdd97
/model/backbone_2d/backbone/model.22/m.0/m/m.0/cv1/act/Sigmoid_output_0: 3c01c451
/model/reg_channel_encoders.1/fuse_convs/fuse_convs.2/Reshape_3_output_0: 3d0cdd97
/model/cls_channel_encoders.1/fuse_convs/fuse_convs.0/convs/convs.0/Conv_output_0: 3d431acf
/model/reg_channel_encoders.1/fuse_convs/fuse_convs.2/Sub_output_0: 41295a23
/model/reg_channel_encoders.1/fuse_convs/fuse_convs.3/convs/convs.2/Sigmoid_output_0: 3bfb8ec1
/model/reg_channel_encoders.1/fuse_convs/fuse_convs.3/convs/convs.2/Mul_output_0: 3cb16cdd
/model/heads.1/cls_head/cls_head.1/convs/convs.0/Conv_output_0: 3d09b5d6
/model/heads.1/cls_head/cls_head.1/convs/convs.2/Sigmoid_output_0: 3bfff60e
/model/heads.1/cls_head/cls_head.0/convs/convs.2/Mul_output_0: 3cd2bd77
model.reg_channel_encoders.1.fuse_convs.2.gamma_output: 399d70de
/model/heads.1/cls_head/cls_head.1/convs/convs.2/Mul_output_0: 3d012bf2
/model/Reshape_12_output_0: 3d6d324d
/model/reg_channel_encoders.1/fuse_convs/fuse_convs.5/Conv_output_0: 3c79f9d3
/model/heads.1/reg_head/reg_head.0/convs/convs.2/Mul_output_0: 3c8ff049
/model/heads.1/reg_head/reg_head.1/convs/convs.0/Conv_output_0: 3cc4e12f
/model/reg_channel_encoders.1/fuse_convs/fuse_convs.3/convs/convs.0/Conv_output_0: 3cf92c39
/model/backbone_2d/backbone/model.8/Slice_1_output_0: 3cd09cd7
/model/backbone_2d/backbone/model.8/m.0/cv1/conv/Conv_output_0: 3d333628
/model/backbone_2d/backbone/model.8/m.0/cv1/act/Sigmoid_output_0: 3c05637a
/model/backbone_2d/backbone/model.8/m.0/cv1/act/Mul_output_0: 3cffb3d4
/model/backbone_2d/backbone/model.8/m.0/m/m.0/cv1/conv/Conv_output_0: 3d814f5b
/model/backbone_2d/backbone/model.8/m.0/m/m.0/cv1/act/Sigmoid_output_0: 3c004a0c
/model/backbone_2d/backbone/model.8/m.0/m/m.0/cv1/act/Mul_output_0: 3ce803d0
/model/backbone_2d/backbone/model.8/m.0/m/m.0/cv2/conv/Conv_output_0: 3d8236eb
/model/backbone_2d/backbone/model.8/m.0/m/m.0/cv2/act/Sigmoid_output_0: 3c00c400
/model/backbone_2d/backbone/model.8/m.0/m/m.0/cv2/act/Mul_output_0: 3d2649a2
/model/backbone_2d/backbone/model.8/m.0/m/m.0/Add_output_0: 3d64c350
/model/backbone_2d/backbone/model.8/m.0/m/m.1/cv1/conv/Conv_output_0: 3d74366a
/model/backbone_2d/backbone/model.8/m.0/m/m.1/cv1/act/Sigmoid_output_0: 3c0b0199
/model/backbone_2d/backbone/model.8/m.0/m/m.1/cv1/act/Mul_output_0: 3ce589b9
/model/backbone_2d/backbone/model.8/m.0/m/m.1/cv2/conv/Conv_output_0: 3dab2c52
/model/backbone_2d/backbone/model.8/m.0/m/m.1/cv2/act/Sigmoid_output_0: 3c0757b5
/model/backbone_2d/backbone/model.8/m.0/m/m.1/cv2/act/Mul_output_0: 3d67fa28
/model/backbone_2d/backbone/model.8/m.0/m/m.1/Add_output_0: 3dd3375f
/model/backbone_2d/backbone/model.8/m.0/cv2/conv/Conv_output_0: 3d36ba2b
/model/backbone_2d/backbone/model.8/m.0/cv2/act/Sigmoid_output_0: 3c028761
/model/backbone_2d/backbone/model.8/m.0/cv2/act/Mul_output_0: 3cd307d5
/model/backbone_2d/backbone/model.8/m.0/Concat_output_0: 3d410620
/model/backbone_2d/backbone/model.8/m.0/cv3/conv/Conv_output_0: 3d8e7d20
/model/backbone_2d/backbone/model.8/m.0/cv3/act/Sigmoid_output_0: 3c03e30a
/model/backbone_2d/backbone/model.8/m.0/cv3/act/Mul_output_0: 3d110293
/model/backbone_2d/backbone/model.8/Concat_output_0: 3d00009a
/model/backbone_2d/backbone/model.8/cv2/conv/Conv_output_0: 3d6d6f88
/model/backbone_2d/backbone/model.8/cv2/act/Sigmoid_output_0: 3c00a92e
/model/backbone_2d/backbone/model.8/cv2/act/Mul_output_0: 3cff6522
/model/backbone_2d/backbone/model.9/cv1/conv/Conv_output_0: 3d2f77f6
/model/backbone_2d/backbone/model.9/cv1/act/Sigmoid_output_0: 3c003a37
/model/backbone_2d/backbone/model.9/cv1/act/Mul_output_0: 3d24af47
/model/backbone_2d/backbone/model.9/m/MaxPool_output_0: 3d24af47
/model/backbone_2d/backbone/model.9/m_1/MaxPool_output_0: 3d24af47
/model/backbone_2d/backbone/model.9/m_2/MaxPool_output_0: 3d24af47
/model/backbone_2d/backbone/model.9/Concat_output_0: 3d3f19f6
/model/backbone_2d/backbone/model.9/cv2/conv/Conv_output_0: 3dc58895
/model/backbone_2d/backbone/model.9/cv2/act/Sigmoid_output_0: 3c0982a0
/model/backbone_2d/backbone/model.9/cv2/act/Mul_output_0: 3cff3cf3
/model/backbone_2d/backbone/model.10/cv1/conv/Conv_output_0: 3e4f484d
/model/backbone_2d/backbone/model.10/cv1/act/Sigmoid_output_0: 3c010a14
/model/backbone_2d/backbone/model.10/cv1/act/Mul_output_0: 3d6810ae
/model/backbone_2d/backbone/model.10/Split_output_0: 3d68313c
/model/backbone_2d/backbone/model.10/Split_output_1: 3d6810ae
/model/backbone_2d/backbone/model.10/m/m.0/attn/qkv/conv/Conv_output_0: 3df8743c
/model/backbone_2d/backbone/model.10/m/m.0/attn/Reshape_output_0: 3df8743c
/model/backbone_2d/backbone/model.10/m/m.0/attn/Split_output_0: 3db71151
/model/backbone_2d/backbone/model.10/m/m.0/attn/Split_output_1: 3dd5d47f
/model/backbone_2d/backbone/model.10/m/m.0/attn/Split_output_2: 3dfc84af
/model/backbone_2d/backbone/model.10/m/m.0/attn/Transpose_output_0: 3db71151
/model/backbone_2d/backbone/model.10/m/m.0/attn/MatMul_output_0: 4018ccc7
/model/backbone_2d/backbone/model.10/m/m.0/attn/Constant_1_output_0_output: 3ab67d3d
ONNXTRT_Broadcast_output: 3ab67d3d
/model/backbone_2d/backbone/model.10/m/m.0/attn/Mul_output_0: 3ed8177a
/model/backbone_2d/backbone/model.10/m/m.0/attn/Softmax_output: 3bbed19e
/model/backbone_2d/backbone/model.10/m/m.0/attn/Softmax_output_0: 3bbed19e
/model/backbone_2d/backbone/model.10/m/m.0/attn/Transpose_1_output_0: 3bbed19e
/model/backbone_2d/backbone/model.10/m/m.0/attn/MatMul_1_output_0: 3dbed795
/model/backbone_2d/backbone/model.10/m/m.0/attn/Reshape_1_output_0: 3dbed795
/model/backbone_2d/backbone/model.10/m/m.0/attn/Reshape_2_output_0: 3dfc84af
/model/backbone_2d/backbone/model.10/m/m.0/attn/pe/conv/Conv_output_0: 3d951c85
/model/backbone_2d/backbone/model.10/m/m.0/attn/Add_output_0: 3d810990
/model/backbone_2d/backbone/model.10/m/m.0/attn/proj/conv/Conv_output_0: 3dfb0bb1
/model/backbone_2d/backbone/model.10/m/m.0/Add_output_0: 3e17df1a
/model/backbone_2d/backbone/model.10/m/m.0/ffn/ffn.0/conv/Conv_output_0: 3e1eceb2
/model/backbone_2d/backbone/model.10/m/m.0/ffn/ffn.0/act/Sigmoid_output_0: 3c0110aa
/model/backbone_2d/backbone/model.10/m/m.0/ffn/ffn.0/act/Mul_output_0: 3d6a34d3
/model/backbone_2d/backbone/model.10/m/m.0/ffn/ffn.1/conv/Conv_output_0: 3dbffabc
/model/backbone_2d/backbone/model.10/m/m.0/Add_1_output_0: 3e03a481
/model/backbone_2d/backbone/model.10/Concat_output_0: 3dc4dbc3
/model/backbone_2d/backbone/model.10/cv2/conv/Conv_output_0: 3dccc3d9
/model/backbone_2d/backbone/model.10/cv2/act/Sigmoid_output_0: 3c00c11f
/model/backbone_2d/backbone/model.10/cv2/act/Mul_output_0: 3d002e89
/model/backbone_2d/backbone/model.11/Resize_output_0: 3d002e89
/model/backbone_2d/backbone/model.12/Concat_output_0: 3cd12818
/model/backbone_2d/backbone/model.13/cv1/conv/Conv_output_0: 3da1cdfc
/model/backbone_2d/backbone/model.13/cv1/act/Sigmoid_output_0: 3c00e713
/model/backbone_2d/backbone/model.13/cv1/act/Mul_output_0: 3cd11da5
ONNXTRT_Broadcast_1087_output: 3b810a14
/model/Constant_70_output_0_output: 3b810a14
/model/Add_3_output_0: 3dd9c102
/model/Reshape_7_output_0: 3dd1b061
/model/Slice_41_output_0: 3ca8e1d7
/model/Cast_2_output_0: 3dd1b061
/model/Transpose_11_output_0: 3cd91fa5
/model/heads.1/reg_head/reg_head.1/convs/convs.2/Sigmoid_output_0: 3bf12eea
/model/heads.1/reg_head/reg_head.0/convs/convs.0/Conv_output_0: 3cddd200
/model/Reshape_4_output_0: 3da3e7cc
/model/rel_preds.1/Conv_output_0: 3d822fb9
/model/heads.1/reg_head/reg_head.0/convs/convs.2/Sigmoid_output_0: 3bf3b563
/model/act_preds.1/Conv_output_0: 3d913222
/model/interact_preds.1/Conv_output_0: 3d6d324d
/model/heads.1/reg_head/reg_head.1/convs/convs.2/Mul_output_0: 3ca53a75
/model/reg_preds.1/Conv_output_0: 3cd91fa5
/model/conf_preds.1/Conv_output_0: 3e138fd0
/model/cls_channel_encoders.0/fuse_convs/fuse_convs.2/Expand_output_0: 4189cf91
/model/heads.0/reg_head/reg_head.0/convs/convs.2/Mul_output_0: 3c8074a0
/model/heads.2/cls_head/cls_head.0/convs/convs.2/Mul_output_0: 3c903fc5
/model/cls_channel_encoders.2/fuse_convs/fuse_convs.0/convs/convs.0/Conv_output_0: 3d2d66aa
/model/Transpose_4_output_0: 3dd25e57
/model/Constant_71_output_0_output: 3e010a14
ONNXTRT_Broadcast_1089_output: 3e010a14
/model/act_preds.0/Conv_output_0: 3d79194b
/model/Slice_27_output_0: 3cd91fa5
/model/reg_channel_encoders.2/fuse_convs/fuse_convs.0/convs/convs.2/Sigmoid_output_0: 3c01e2da
/model/backbone_2d/backbone/model.22/Slice_output_0: 3d009d59
/model/backbone_2d/backbone/model.19/m.0/cv1/act/Mul_output_0: 3c66b3b8
/model/backbone_2d/backbone/model.13/Slice_output_0: 3c9920f6
/model/Cast_3_output_0: 3fd9c102
/model/Transpose_6_output_0: 3e138fd0
/model/backbone_2d/backbone/model.20/conv/Conv_output_0: 3d9484e3
/model/Exp_2_output_0: 3d377ace
/model/backbone_2d/backbone/model.22/cv2/act/Sigmoid_output_0: 3c031414
/model/backbone_2d/backbone/model.19/m.0/cv3/act/Sigmoid_output_0: 3c00c23f
/model/reg_channel_encoders.0/fuse_convs/fuse_convs.2/Reshape_3_output_0: 3c8684ee
/model/heads.0/reg_head/reg_head.0/convs/convs.2/Sigmoid_output_0: 3bf5bbd0
/model/Reshape_18_output_0: 3dad9bf4
/model/backbone_2d/backbone/model.19/m.0/m/m.0/cv2/conv/Conv_output_0: 3d3cdc18
/model/backbone_2d/backbone/model.19/m.0/cv1/act/Sigmoid_output_0: 3bec124f
/model/reg_channel_encoders.0/fuse_convs/fuse_convs.1/convs/convs.0/Conv_output_0: 3cbff7cd
/model/cls_channel_encoders.0/fuse_convs/fuse_convs.2/Reshape_1_output_0: 3cb0a6c2
/model/cls_channel_encoders.0/fuse_convs/fuse_convs.2/ReduceMax_output_0: 4189cf91
/model/Mul_4_output_0: 3fd9c102
/model/cls_channel_encoders.2/fuse_convs/fuse_convs.1/convs/convs.2/Sigmoid_output_0: 3bfc3f80
/Concat_2_output_0: 3d95afa4
/model/reg_channel_encoders.0/fuse_convs/fuse_convs.2/Sub_output_0: 412135f2
/model/Transpose_output_0: 3de3b45a
/model/cls_channel_encoders.2/fuse_convs/fuse_convs.2/Reshape_1_output_0: 3ce66b06
/model/backbone_2d/backbone/model.19/m.0/m/m.1/cv1/act/Mul_output_0: 3c5b4987
/model/backbone_2d/backbone/model.22/cv1/conv/Conv_output_0: 3d89aa14
/model/reg_channel_encoders.0/fuse_convs/fuse_convs.1/convs/convs.2/Mul_output_0: 3c5af0eb
/model/cls_channel_encoders.2/fuse_convs/fuse_convs.2/Reshape_output_0: 3ce66b06
/model/backbone_2d/backbone/model.19/cv2/act/Sigmoid_output_0: 3c00f1bc
/model/cls_channel_encoders.2/fuse_convs/fuse_convs.2/Reshape_2_output_0: 3ce66b06
/model/backbone_2d/backbone/model.13/Slice_1_output_0: 3ce5fc65
/model/backbone_2d/backbone/model.13/m.0/cv1/conv/Conv_output_0: 3d6cd12a
/model/backbone_2d/backbone/model.13/m.0/cv1/act/Sigmoid_output_0: 3c053ad0
/model/backbone_2d/backbone/model.13/m.0/cv1/act/Mul_output_0: 3cb2c7bb
/model/backbone_2d/backbone/model.13/m.0/m/m.0/cv1/conv/Conv_output_0: 3da12ce0
/model/backbone_2d/backbone/model.13/m.0/m/m.0/cv1/act/Sigmoid_output_0: 3c030eed
/model/backbone_2d/backbone/model.13/m.0/m/m.0/cv1/act/Mul_output_0: 3cc0b43d
/model/backbone_2d/backbone/model.13/m.0/m/m.0/cv2/conv/Conv_output_0: 3de3ca51
/model/backbone_2d/backbone/model.13/m.0/m/m.0/cv2/act/Sigmoid_output_0: 3c031627
/model/backbone_2d/backbone/model.13/m.0/m/m.0/cv2/act/Mul_output_0: 3d2488b2
/model/backbone_2d/backbone/model.13/m.0/m/m.0/Add_output_0: 3d91445b
/model/backbone_2d/backbone/model.13/m.0/m/m.1/cv1/conv/Conv_output_0: 3d99dc36
/model/backbone_2d/backbone/model.13/m.0/m/m.1/cv1/act/Sigmoid_output_0: 3c033f13
/model/backbone_2d/backbone/model.13/m.0/m/m.1/cv1/act/Mul_output_0: 3ca70d83
/model/backbone_2d/backbone/model.13/m.0/m/m.1/cv2/conv/Conv_output_0: 3d94e4fa
/model/backbone_2d/backbone/model.13/m.0/m/m.1/cv2/act/Sigmoid_output_0: 3c00ebf7
/model/backbone_2d/backbone/model.13/m.0/m/m.1/cv2/act/Mul_output_0: 3d25656a
/model/backbone_2d/backbone/model.13/m.0/m/m.1/Add_output_0: 3dd46211
/model/backbone_2d/backbone/model.13/m.0/cv2/conv/Conv_output_0: 3de32b74
/model/backbone_2d/backbone/model.13/m.0/cv2/act/Sigmoid_output_0: 3c0ce8fd
/model/backbone_2d/backbone/model.13/m.0/cv2/act/Mul_output_0: 3d25102d
/model/backbone_2d/backbone/model.13/m.0/Concat_output_0: 3d94db36
/model/backbone_2d/backbone/model.13/m.0/cv3/conv/Conv_output_0: 3dae02b5
/model/backbone_2d/backbone/model.13/m.0/cv3/act/Sigmoid_output_0: 3c0315b2
/model/backbone_2d/backbone/model.13/m.0/cv3/act/Mul_output_0: 3d01f4e0
/model/backbone_2d/backbone/model.13/Concat_output_0: 3d01f4e0
/model/backbone_2d/backbone/model.13/cv2/conv/Conv_output_0: 3dc484d0
/model/backbone_2d/backbone/model.13/cv2/act/Sigmoid_output_0: 3c04155c
/model/backbone_2d/backbone/model.13/cv2/act/Mul_output_0: 3cd4a14a
/model/backbone_2d/backbone/model.14/Resize_output_0: 3cd4a14a
/model/backbone_2d/backbone/model.15/Concat_output_0: 3ca7add6
/model/backbone_2d/backbone/model.16/cv1/conv/Conv_output_0: 3d35a332
/model/backbone_2d/backbone/model.16/cv1/act/Sigmoid_output_0: 3bfd96a4
/model/backbone_2d/backbone/model.16/cv1/act/Mul_output_0: 3c88baed
/model/reg_channel_encoders.0/fuse_convs/fuse_convs.2/ReduceMax_output_0: 41216138
model.cls_channel_encoders.2.fuse_convs.2.gamma_output: 3a18e9d8
/model/Mul_output_0: 3fddc953
/model/cls_channel_encoders.2/fuse_convs/fuse_convs.2/Reshape_3_output_0: 3d181b72
/model/Add_1_output_0: 3fdff0a9
/model/cls_channel_encoders.2/fuse_convs/fuse_convs.2/MatMul_1_output_0: 3d181b72
/model/Resize_output_0: 3d916dcf
/model/reg_channel_encoders.2/fuse_convs/fuse_convs.5/Conv_output_0: 3c10a049
/model/Reshape_5_output_0: 3dd25e57
/model/cls_channel_encoders.2/fuse_convs/fuse_convs.1/convs/convs.2/Mul_output_0: 3ce66b06
/model/cls_channel_encoders.2/fuse_convs/fuse_convs.2/MatMul_output_0: 3fb2e41f
/model/Transpose_5_output_0: 3d3f3f90
/model/cls_channel_encoders.0/fuse_convs/fuse_convs.0/convs/convs.2/Mul_output_0: 3c744c0f
/model/cls_channel_encoders.2/fuse_convs/fuse_convs.1/convs/convs.0/Conv_output_0: 3d156249
/model/cls_channel_encoders.2/fuse_convs/fuse_convs.2/ReduceMax_output_0: 3fd0a989
/model/cls_channel_encoders.0/fuse_convs/fuse_convs.2/Reshape_2_output_0: 3cb0a6c2
/model/cls_channel_encoders.2/fuse_convs/fuse_convs.2/Transpose_output_0: 3ce66b06
/model/cls_channel_encoders.2/fuse_convs/fuse_convs.2/Sub_output_0: 3ffadd76
/model/cls_channel_encoders.2/fuse_convs/fuse_convs.2/softmax/Softmax_output: 3bde92e5
/model/cls_channel_encoders.2/fuse_convs/fuse_convs.0/convs/convs.2/Mul_output_0: 3ce92382
/model/cls_channel_encoders.2/fuse_convs/fuse_convs.2/Expand_output_0: 3fd0a989
/model/Constant_9_output_0_output: 3d810a14
/model/Constant_132_output_0_output: 3b810a14
/model/reg_channel_encoders.2/fuse_convs/fuse_convs.2/Transpose_output_0: 3ca584b4
/model/Transpose_8_output_0: 3d913222
/model/reg_channel_encoders.2/fuse_convs/fuse_convs.2/ReduceMax_output_0: 3f7c52c2
ONNXTRT_Broadcast_567_output: 39e6274a
/model/Reshape_8_output_0: 3e138fd0
/model/cls_channel_encoders.2/fuse_convs/fuse_convs.2/softmax/Softmax_output_0: 3bde92e5
/model/reg_channel_encoders.0/fuse_convs/fuse_convs.2/Reshape_1_output_0: 3c5af0eb
/model/reg_channel_encoders.2/fuse_convs/fuse_convs.1/convs/convs.2/Mul_output_0: 3ca584b4
/model/heads.0/cls_head/cls_head.0/convs/convs.2/Sigmoid_output_0: 3bfb14b6
/model/Mul_11_output_0: 3f377ace
/model/heads.0/cls_head/cls_head.1/convs/convs.0/Conv_output_0: 3cd7f826
/model/backbone_2d/backbone/model.16/Slice_output_0: 3c9063ab
ONNXTRT_Broadcast_2080_output: 3b810a14
/model/conf_preds.0/Conv_output_0: 3de3b45a
/model/backbone_2d/backbone/model.22/m.0/m/m.1/Add_output_0: 3d9bb22c
ONNXTRT_Broadcast_1602_output: 3b810a14
/model/reg_channel_encoders.2/fuse_convs/fuse_convs.1/convs/convs.2/Sigmoid_output_0: 3bf5b397
/model/Constant_186_output_0_output: 3b810a14
/model/reg_channel_encoders.2/fuse_convs/fuse_convs.2/MatMul_output_0: 3f105254
/model/reg_channel_encoders.2/fuse_convs/fuse_convs.2/Reshape_2_output_0: 3ca584b4
/model/backbone_2d/backbone/model.22/m.0/cv3/act/Sigmoid_output_0: 3c05b7ea
/model/Transpose_7_output_0: 3d9a14cd
/model/backbone_2d/backbone/model.22/m.0/cv2/act/Mul_output_0: 3cd38f50
ONNXTRT_Broadcast_572_output: 3b810a14
/Concat_5_output_0: 3dcf6d22
ONNXTRT_Broadcast_1565_output: 3b810a14
ONNXTRT_Broadcast_1526_output: 3e010a14
/model/Constant_124_output_0_output: 3b810a14
/model/Mul_7_output_0: 3eaffa46
/model/backbone_2d/backbone/model.22/Concat_output_0: 3d01437f
/model/cls_channel_encoders.0/fuse_convs/fuse_convs.2/Reshape_3_output_0: 3cb0a6c2
/model/Mul_6_output_0: 3f2ffa46
/Concat_4_output_0: 3fe04a16
/model/Constant_123_output_0_output: 3e010a14
/model/cls_channel_encoders.2/Concat_output_0: 3d91b938
ONNXTRT_Broadcast_1563_output: 3e010a14
/model/Resize_2_output_0: 3d916dcf
/model/backbone_2d/backbone/model.16/Slice_1_output_0: 3c51b52c
/model/backbone_2d/backbone/model.16/m.0/cv1/conv/Conv_output_0: 3d1ea9b9
/model/backbone_2d/backbone/model.16/m.0/cv1/act/Sigmoid_output_0: 3bd6a04f
/model/backbone_2d/backbone/model.16/m.0/cv1/act/Mul_output_0: 3bf252d0
/model/backbone_2d/backbone/model.16/m.0/m/m.0/cv1/conv/Conv_output_0: 3d03a1fe
/model/backbone_2d/backbone/model.16/m.0/m/m.0/cv1/act/Sigmoid_output_0: 3bfe0f57
/model/backbone_2d/backbone/model.16/m.0/m/m.0/cv1/act/Mul_output_0: 3c40284b
/model/backbone_2d/backbone/model.16/m.0/m/m.0/cv2/conv/Conv_output_0: 3d17a38d
/model/backbone_2d/backbone/model.16/m.0/m/m.0/cv2/act/Sigmoid_output_0: 3bfdfb9e
/model/backbone_2d/backbone/model.16/m.0/m/m.0/cv2/act/Mul_output_0: 3c800f42
/model/backbone_2d/backbone/model.16/m.0/m/m.0/Add_output_0: 3ca4408f
/model/backbone_2d/backbone/model.16/m.0/m/m.1/cv1/conv/Conv_output_0: 3d073081
/model/backbone_2d/backbone/model.16/m.0/m/m.1/cv1/act/Sigmoid_output_0: 3bf7f4db
/model/backbone_2d/backbone/model.16/m.0/m/m.1/cv1/act/Mul_output_0: 3cc06cc6
/model/backbone_2d/backbone/model.16/m.0/m/m.1/cv2/conv/Conv_output_0: 3d7367eb
/model/backbone_2d/backbone/model.16/m.0/m/m.1/cv2/act/Sigmoid_output_0: 3c00b8af
/model/backbone_2d/backbone/model.16/m.0/m/m.1/cv2/act/Mul_output_0: 3d40ca73
/model/backbone_2d/backbone/model.16/m.0/m/m.1/Add_output_0: 3d7337b5
/model/backbone_2d/backbone/model.16/m.0/cv2/conv/Conv_output_0: 3d3a8c97
/model/backbone_2d/backbone/model.16/m.0/cv2/act/Sigmoid_output_0: 3c017669
/model/backbone_2d/backbone/model.16/m.0/cv2/act/Mul_output_0: 3ce7e4ae
/model/backbone_2d/backbone/model.16/m.0/Concat_output_0: 3d43f399
/model/backbone_2d/backbone/model.16/m.0/cv3/conv/Conv_output_0: 3d4d3a66
/model/backbone_2d/backbone/model.16/m.0/cv3/act/Sigmoid_output_0: 3bf60706
/model/backbone_2d/backbone/model.16/m.0/cv3/act/Mul_output_0: 3c5ccb78
/model/backbone_2d/backbone/model.16/Concat_output_0: 3c88baed
/model/backbone_2d/backbone/model.16/cv2/conv/Conv_output_0: 3d4261e8
/model/backbone_2d/backbone/model.16/cv2/act/Sigmoid_output_0: 3bf4d7c6
/model/backbone_2d/backbone/model.16/cv2/act/Mul_output_0: 3c739016
/model/backbone_2d/backbone/model.17/conv/Conv_output_0: 3d15a598
/model/backbone_2d/backbone/model.17/act/Sigmoid_output_0: 3bfcc60d
/model/backbone_2d/backbone/model.17/act/Mul_output_0: 3ca5287c
/model/backbone_2d/backbone/model.18/Concat_output_0: 3cb4b0f1
/model/backbone_2d/backbone/model.19/cv1/conv/Conv_output_0: 3d9a298a
/model/backbone_2d/backbone/model.19/cv1/act/Sigmoid_output_0: 3c03d542
/model/backbone_2d/backbone/model.19/cv1/act/Mul_output_0: 3c907710
/model/reg_channel_encoders.2/fuse_convs/fuse_convs.2/Sub_output_0: 3f7ca3f8
/model/backbone_2d/backbone/model.19/m.0/m/m.1/cv2/act/Sigmoid_output_0: 3c0111e3
/model/backbone_2d/backbone/model.20/act/Mul_output_0: 3d25304d
/model/cls_channel_encoders.0/fuse_convs/fuse_convs.2/softmax/Softmax_output: 3c010a14
/model/reg_channel_encoders.2/fuse_convs/fuse_convs.2/softmax/Softmax_output: 3af0bb6a
/model/backbone_2d/backbone/model.19/m.0/m/m.1/Add_output_0: 3d8edc8f
/model/backbone_2d/backbone/model.19/m.0/m/m.0/cv2/act/Mul_output_0: 3cc0d80e
/model/obj_preds.1/Conv_output_0: 3d9a14cd
/model/cls_channel_encoders.0/fuse_convs/fuse_convs.3/convs/convs.2/Sigmoid_output_0: 3bf09e51
/model/backbone_2d/backbone/model.22/m.0/m/m.1/cv1/act/Mul_output_0: 3cc01745
/model/Cast_4_output_0: 3d418f1e
model.reg_channel_encoders.2.fuse_convs.2.gamma_output: 3ac46d47
/model/reg_channel_encoders.0/fuse_convs/fuse_convs.2/Reshape_2_output_0: 3c5af0eb
/model/backbone_2d/backbone/model.19/m.0/cv1/conv/Conv_output_0: 3d1147b5
ONNXTRT_Broadcast_2078_output: 3e810a14
/model/Reshape_9_output_0: 3d9a14cd
/model/Add_5_output_0: 3ffe31d5
/model/Concat_23_output_0: 3fe075ec
/model/Reshape_6_output_0: 3d3f3f90
/model/cls_channel_encoders.2/fuse_convs/fuse_convs.3/convs/convs.2/Sigmoid_output_0: 3bf17c3b
/model/Slice_26_output_0: 3be6329c
/model/cls_channel_encoders.0/fuse_convs/fuse_convs.1/convs/convs.2/Sigmoid_output_0: 3bf257c4
/model/Slice_40_output_0: 3c200cb4
/model/backbone_2d/backbone/model.22/m.0/cv2/act/Sigmoid_output_0: 3c00e235
/model/cls_channel_encoders.0/fuse_convs/fuse_convs.2/softmax/Softmax_output_0: 3c010a14
ONNXTRT_Broadcast_551_output: 38fe54f4
ONNXTRT_Broadcast_1597_output: 3ac46d47
/model/reg_channel_encoders.2/fuse_convs/fuse_convs.2/Mul_output_0: 3b71f387
/model/reg_channel_encoders.2/fuse_convs/fuse_convs.2/Reshape_3_output_0: 3c9ef226
/model/reg_channel_encoders.0/fuse_convs/fuse_convs.5/Conv_output_0: 3c417cf0
/model/reg_channel_encoders.2/fuse_convs/fuse_convs.2/MatMul_1_output_0: 3c9ef226
/model/heads.0/cls_head/cls_head.1/convs/convs.2/Mul_output_0: 3cb0e858
/model/reg_channel_encoders.2/fuse_convs/fuse_convs.2/Expand_output_0: 3f7c52c2
/model/reg_channel_encoders.2/fuse_convs/fuse_convs.2/Add_output_0: 3cba5f19
/model/backbone_2d/backbone/model.19/Slice_output_0: 3cd0bd11
/model/Slice_12_output_0: 3bba89be
/model/Constant_56_output_0_output: 3d810a14
/model/Add_6_output_0: 3d51b061
ONNXTRT_Broadcast_1011_output: 3d810a14
/model/reg_channel_encoders.2/fuse_convs/fuse_convs.2/softmax/Softmax_output_0: 3af0bb6a
/model/reg_channel_encoders.0/fuse_convs/fuse_convs.3/convs/convs.0/Conv_output_0: 3ca0388b
/model/Sub_1_output_0: 3fdc1729
/model/backbone_2d/backbone/model.22/m.0/cv3/conv/Conv_output_0: 3d825883
/model/cls_channel_encoders.0/Concat_output_0: 3d916dcf
/model/reg_channel_encoders.0/fuse_convs/fuse_convs.2/softmax/Softmax_output: 3c010a14
/model/backbone_2d/backbone/model.22/cv2/act/Mul_output_0: 3d1268ba
/model/Mul_10_output_0: 3fb77ace
/model/heads.0/cls_head/cls_head.0/convs/convs.0/Conv_output_0: 3cc90de9
/model/backbone_2d/backbone/model.22/cv1/act/Sigmoid_output_0: 3c00afa1
/model/reg_channel_encoders.0/fuse_convs/fuse_convs.2/softmax/Softmax_output_0: 3c010a14
/model/backbone_2d/backbone/model.22/m.0/m/m.0/cv1/act/Mul_output_0: 3c99106b
/model/rel_preds.0/Conv_output_0: 3da3e7cc
/model/cls_channel_encoders.2/fuse_convs/fuse_convs.2/Add_output_0: 3cee6cbb
/model/backbone_2d/backbone/model.22/m.0/m/m.1/cv2/act/Sigmoid_output_0: 3c02124d
/model/Reshape_11_output_0: 3d822fb9
model.cls_channel_encoders.0.fuse_convs.2.gamma_output: 38fe54f4
predictions: 3ef34a13
/model/backbone_2d/backbone/model.21/Concat_output_0: 3d0fd592
